/**
  ******************************************************************************
  * @file    tinycnnbuow_data_params.c
  * @author  AST Embedded Analytics Research Platform
  * @date    2025-07-03T17:44:06-0700
  * @brief   AI Tool Automatic Code Generator for Embedded NN computing
  ******************************************************************************
  * Copyright (c) 2025 STMicroelectronics.
  * All rights reserved.
  *
  * This software is licensed under terms that can be found in the LICENSE file
  * in the root directory of this software component.
  * If no LICENSE file comes with this software, it is provided AS-IS.
  ******************************************************************************
  */

#include "tinycnnbuow_data_params.h"


/**  Activations Section  ****************************************************/
ai_handle g_tinycnnbuow_activations_table[1 + 2] = {
  AI_HANDLE_PTR(AI_MAGIC_MARKER),
  AI_HANDLE_PTR(NULL),
  AI_HANDLE_PTR(AI_MAGIC_MARKER),
};




/**  Weights Section  ********************************************************/
AI_ALIGNED(32)
const ai_u64 s_tinycnnbuow_weights_array_u64[3044] = {
  0x3d610918bdc70db8U, 0x3f146523bac5746dU, 0xbe07b5eb3e6fc813U, 0xbd07523a3e086089U,
  0xc0129136be8fc984U, 0x404c1568bfd998deU, 0x3e8fffdac0002c4fU, 0xbeb8a11840442b45U,
  0x3f0880f7bee1b98aU, 0xbe851b93bdd11897U, 0xbfa63814bed3d3b7U, 0xbee799ffbfb68a50U,
  0x3fbd66ae3fa621edU, 0xbf209a023eeeaf89U, 0x3fa39adfbfc6f37eU, 0xbfddfbd6be5db765U,
  0x3f54b09cbf6ad105U, 0x3fea1e453fa12052U, 0x3ebdb0a13e5cc957U, 0xbe71e995bf08c7daU,
  0xbedc812cbd903148U, 0x3e8303b4bcbab88fU, 0x3fefe924bec10139U, 0xbf735d893fd42a4eU,
  0x3f3c8c703f35db15U, 0xc01b2e38bfa8b04cU, 0x3f9a35c0bf7bab6dU, 0x3e960c0ebfc3b1e6U,
  0x3e9b60673f208229U, 0x3f9a217fbf7de20cU, 0xbf0299373f21da34U, 0x3d33e375bf490563U,
  0xbd06bc9bbce24afdU, 0x3d10f314bc872365U, 0x3ba1b5a83c29c26bU, 0x3e0d67023e9cf1cdU,
  0xbe10e28f3e061c53U, 0x3e820005bd6d1673U, 0xbe58e88fbde4cd56U, 0xbd1bb16dbda086bfU,
  0xbc3854e03cbf6bd5U, 0x3cf8237d3ccd99bfU, 0xbd3854e0bd3be05bU, 0x3cc682cabc4682caU,
  0xbd0dcb23bc54b0b4U, 0x3caa26f6bc1bf90dU, 0xbd42f750bd54b0b4U, 0xbc1bf90dbce9f593U,
  0xbd6d810d3b8dcb23U, 0x3cd4b0b4bd8328b3U, 0xbd7f3a72bd1f8487U, 0x3c94e218bcd4b0b4U,
  0x3b62de9e3d06b42eU, 0xbc2a26f6bdb13debU, 0xbda4d5bfbdcbd402U, 0x3c7f3a72bd8dcb23U,
  0x3c1bf90dbc3854e0U, 0x3b2a26f6bd313debU, 0xbd9dbecabdc13193U, 0xbc86b42ebd2a26f6U,
  0x3d1f84873c8dcb23U, 0xbb8dcb23bd6d810dU, 0xbd6d810dbde118e1U, 0x3cb854e0bd9f8487U,
  0x3c62de9e3d313debU, 0xbd14e218bd3be05bU, 0x3cf10c88bd3f6bd5U, 0x3d5bc7a9bd269b7cU,
  0x3cc682ca3c7f3a72U, 0xbc710c88bcdbc7a9U, 0xbd11569dbd4a0e45U, 0x3d1f8487bd4d99bfU,
  0x3d710c88bbe2de9eU, 0xbd11569dbd666a18U, 0x3bc682cabd6d810dU, 0x3ce9f593bdabecb4U,
  0x3d4a09b9bcfa69ccU, 0x3b63a600bc13f8b3U, 0xbd0b6f46bd779153U, 0xbce3a600bd0b6f46U,
  0xbd0b6f46bc0896ccU, 0xbc0896ccbccce233U, 0xbc2abc80bd19a9a6U, 0xbd6f07e6bd361e66U,
  0x3d0e47c0bd000d60U, 0x3cd84419U, 0xbcb61e66bd3bcf59U, 0xbd000d60bd38f6e0U,
  0xbc2abc80bb0896ccU, 0xbd71e05fbda677c9U, 0x3bfa69ccbc41804cU, 0xbda23313bcb06d73U,
  0x3ca50b8cbd16d12cU, 0xbd9c8220bd845216U, 0xbc584419bc0896ccU, 0xbce3a600bd5b1c93U,
  0xba361e66bbcce233U, 0xbd6f07e6bd99a9a6U, 0xbab61e66bd4a09b9U, 0xbc7a69ccbd5df50cU,
  0x3d223313bd800d60U, 0x3d3bcf593cf4b8d9U, 0x3cc1804c3b8896ccU, 0xbd8fb3fc3d112039U,
  0xbc6f07e6bcc73140U, 0xbab61e663ccce233U, 0xbb63a6003c63a600U, 0xbdb4b229bbfa69ccU,
  0x3c2abc80bd4a09b9U, 0x3ab61e663cfa69ccU, 0x3c361e663c0896ccU, 0xbd983d693cc73140U,
  0xbdb71d48bca2c4b2U, 0x3d74270abe305516U, 0xbcf4270abe00dbb7U, 0x3ded5ed8bd305516U,
  0xbd3de57abd8e6c1bU, 0x3e298ce43db05516U, 0xbcbde57abdbde57aU, 0xbded5ed8bd22c4b2U,
  0x3e2cf0fdbd74270aU, 0xbd4b75de3dfaef3cU, 0xbd305516bd95344dU, 0xbd8e6c1bbde696a6U,
  0xbca2c4b2bb590642U, 0x3e2628cbbca2c4b2U, 0x3ded5ed8bca2c4b2U, 0x3db055163cbde57aU,
  0xbe4811c5bd15344dU, 0x3e0e6c1bbddfce74U, 0xbdbde57aU, 0xbe2628cbbc22c4b2U,
  0x3e9a4a73bd9bfc7fU, 0xbc22c4b2bdfaef3cU, 0x3e0b0802be2628cbU, 0xbdb71d48bda2c4b2U,
  0x3e0b0802bca2c4b2U, 0x3cd90642bddfce74U, 0x3ddfce74bcd90642U, 0xbcf4270a3d590642U,
  0xbed754353d15344dU, 0x3b5906423da2c4b2U, 0x3dd90642bbd90642U, 0xbdc4adacbdb71d48U,
  0x3e901e28be371d48U, 0xbdbde57a3e0e6c1bU, 0xbe87a3e9bded5ed8U, 0xbdc4adacbe00dbb7U,
  0xbb43e1b53cab657fU, 0xbc267fdabc891dffU, 0x3d774cf53aeb0edaU, 0x3d12e9483d0e03a3U,
  0xbd5778473c9cb491U, 0xbd6b0edabcc8c75aU, 0x3d9b7b28bca19a36U, 0xbb891dff3c1cb491U,
  0x3d219a363d0e03a3U, 0x3d614390bd12e948U, 0x3d2dd851bd107676U, 0x3cd292a33a1cb491U,
  0xbca67fda3c267fdaU, 0x3d416ee33c74da23U, 0x3c12e9483d06ab2dU, 0x3c43e1b53d726750U,
  0x3a1cb4913beb0edaU, 0x3d04385abaeb0edaU, 0x3d7c32993d28f2acU, 0x3d04385a3d0e03a3U,
  0x3d79bfc73ca67fdaU, 0x3d12e9483a9cb491U, 0x3d689c073bd77847U, 0xbbd778473d155c1aU,
  0xbd2b657f3bfea56cU, 0xbd37a39a3cc8c75aU, 0x3cab657f3d969583U, 0x3ceff47e3d3530c8U,
  0xbce143903c1cb491U, 0xba9cb4913aeb0edaU, 0x3ce143903d8b90d1U, 0x3c8e03a33d7ea56cU,
  0x3d240d08bc6b0edaU, 0xbce143903cba166cU, 0x3ca67fda3cf4da23U, 0x3c6b0eda3d17ceecU,
  0xbcaf8ce9bdd07755U, 0x3de668f2bf2e2dcfU, 0xbe3509503de668f2U, 0x3e55f3bc3e7c5a8fU,
  0xbcdb7023be999b4cU, 0x3f1afa66bf0d4363U, 0xbef41ff43dc57e86U, 0x3e5b70233e3a85b8U,
  0x3e6668f2bd999b4cU, 0x3e7c5a8fbf233501U, 0xbe83a9af3c2f8ce9U, 0x3dc57e863df161c0U,
  0x3ddb70233e24941aU, 0xbe60ec8b3d457e86U, 0x3e0ea27dbd03a9afU, 0xbd8ea27d3d457e86U,
  0xbe7161c03e350950U, 0xbe40021f3e7161c0U, 0x3e6668f23d7161c0U, 0xbd7161c0bddb7023U,
  0xbdba85b83e6be559U, 0xbcaf8ce93d7161c0U, 0x3eaf8ce93d5b7023U, 0xbd199b4c3e24941aU,
  0xbcaf8ce9be199b4cU, 0xbe9c59803c2f8ce9U, 0x3c83a9af3e24941aU, 0xbe9160b1be83a9afU,
  0xbdf161c0be6be559U, 0xbc2f8ce93c83a9afU, 0xbd03a9af3e7c5a8fU, 0xbe55f3bcbeb50950U,
  0x3e350950be24941aU, 0x3c83a9afbdaf8ce9U, 0x3c83a9af3de668f2U, 0xbe60ec8bbcdb7023U,
  0xbe282f963c2d9c7aU, 0xbaad9c7a3cd90398U, 0x3c8d0f23bd3de325U, 0xbd22c2b2bd87a23fU,
  0x3d127c073d07a23fU, 0xbd953279bc82355cU, 0xbc97e8ebbdb052ecU, 0xbc6eb728bd953279U,
  0xbd74240c3d02355cU, 0xbdd90398be2c4141U, 0x3d48bcedbd02355cU, 0x3c590398bd48bcedU,
  0xbc17e8ebbd127c07U, 0xbcf990efbd33095eU, 0x3d5e707cbd5e707cU, 0xbc435009bd1d55cfU,
  0x3cf990ef3d6eb728U, 0xbe02355cbdad9c7aU, 0x3dc8bcedbd9d55cfU, 0xbc2d9c7abd33095eU,
  0xbceeb7283d17e8ebU, 0xbcce29d1bd8fc595U, 0x3d0d0f23bc6eb728U, 0xbb82355cbc82355cU,
  0xbe1bfa96bcad9c7aU, 0x3d435009bb2d9c7aU, 0xbb2d9c7abdec00b6U, 0xbd7990efbdc35009U,
  0x3d17e8ebbc02355cU, 0xbcb87642bcce29d1U, 0xbd07a23fbdb3095eU, 0xbd6eb728bd87a23fU,
  0xbdc6067bbceeb728U, 0xbc6eb728bd127c07U, 0x3de3dd60bdb052ecU, 0xbd590398bdd0e043U,
  0xbe0cbc893d4e3a4aU, 0xbc48a76b3c05c4f2U, 0xbcd3cd293c5ef2e8U, 0x3c1c106fbd0b57d1U,
  0xbe13b4203ca7362eU, 0x3d48a76b3d2cc90eU, 0xbd8032123c9c106fU, 0x3ca7362e3cd3cd29U,
  0xbcc8a76bbbb25bedU, 0x3d43148b3d82fb82U, 0xbdce3a4a3c1c106fU, 0x3b85c4f23c9c106fU,
  0xbe124f683c753e66U, 0xbcea18a7bd05c4f2U, 0x3d003212bc325bedU, 0xbc325bedbd05c4f2U,
  0xbdb5255dbc1c106fU, 0xbd003212bb85c4f2U, 0x3c325bed00000000U, 0xbc325bed3c85c4f2U,
  0xbcc8a76b3bdef2e8U, 0x3ab25bedbcc8a76bU, 0x3cbd81ac3cc8a76bU, 0x3d05c4f23cb25bedU,
  0xbe30f7353c85c4f2U, 0xbd53cd293c90eab1U, 0x3c90eab1bd0b57d1U, 0xbd325bedbd53cd29U,
  0xbe194700bd003212U, 0xbbdef2e83c90eab1U, 0x3c5ef2e8bd003212U, 0x3bb25bedbcdef2e8U,
  0xbc1c106fbc5ef2e8U, 0x3c5ef2e83c1c106fU, 0xbb325bedbd10eab1U, 0x3c1c106fbc753e66U,
  0xbd1cbb60bbf551ceU, 0xbcfc224dbdd85bb4U, 0x3d0849e4bc4c6ed7U, 0xbbbecddabd26f41eU,
  0xbd6e8150bd84e1a5U, 0xbd04e1a5bdcabab7U, 0xbc0849e4bbbecddaU, 0xbd37fd5bbada0fd4U,
  0xbd9e6f80bce0e053U, 0xbda38bdfbd817966U, 0x3c238bdfbd1282a2U, 0xbd7c224dbc4c6ed7U,
  0xbd7c224dbcbecddaU, 0xbcee8150bcda0fd4U, 0x3c817966bc95eae2U, 0xbd1953213c67b0d1U,
  0xbd34951cbd84e1a5U, 0xbc312cdcbcfc224dU, 0xbb238bdf3bbecddaU, 0xbd04e1a53b5a0fd4U,
  0xbd644892bd8f1a63U, 0xbc5a0fd4bd533f55U, 0xbce0e053bc5a0fd4U, 0xbd7f8a8c3d26f41eU,
  0xbd533f55bb238bdfU, 0x3c8849e43a5a0fd4U, 0x3d6e81503caa5c5eU, 0xbd2023a03cee8150U,
  0xbd8849e4bdc90697U, 0x3c238bdfbc238bdfU, 0x3cf551ce3d37fd5bU, 0xbd8695c53d1cbb60U,
  0xbd4fd716bd533f55U, 0x3c15eae23ada0fd4U, 0x3cbecdda3ca38bdfU, 0xbd7c224d3c8f1a63U,
  0xbd26d528bc96d5c2U, 0xbd391d9dbd22430bU, 0xbd22430b3cfff661U, 0xbc9243a53d148cb4U,
  0x3cf24009bc36d48eU, 0xbc76d226bd3dafbaU, 0xbc848d4e3ce91bcfU, 0xbd16d5c23c9243a5U,
  0x3c5b6578bd1db0eeU, 0xbd091f6bbcdb6578U, 0xbcedadecbc891f6bU, 0xbc96d5c23bedadecU,
  0xbc891f6bbd6b64deU, 0xbd56d35abd4daf20U, 0xbbb6d48e3ce91bcfU, 0xbcedadec3bfff661U,
  0x3c1b67dfbd191ed1U, 0xbd6dadecbcedadecU, 0xbc96d5c23cedadecU, 0xbc76d2263ce91bcfU,
  0x3c248c1a3a9243a5U, 0xbd76d226bd6489b2U, 0xbd1243a5bb9243a5U, 0xbd46d3f43c091f6bU,
  0xbd2ff963bd3ff8c9U, 0xbd2b67453b9243a5U, 0x3ba48c1a3d87fae3U, 0xbd4b66113d0ffa96U,
  0xbc96d5c2bd46d3f4U, 0xbcc91d03bba48c1aU, 0x3c76d2263d548a4cU, 0xbd6ff6fb3d02443fU,
  0xbc091f6bbd2b6745U, 0xbc2db05400000000U, 0x3d26d5283d911f1eU, 0xbd1db0ee3d46d3f4U,
  0xbed797d2beb7f245U, 0xbe39ec9ebe262526U, 0xbe6d59a33da62526U, 0xbdc5cab3be945806U,
  0xbdbde150bd8e68fcU, 0x3ecfae6f3eb9ec9eU, 0xbe7d2c6abcdd86ddU, 0xbe906354U,
  0xbee17b8ebd2e0e89U, 0xbef937b8bd9e3bc2U, 0x3d9e3bc2be8a744aU, 0xbe6964f2be45cab3U,
  0x3d7d2c6a3d1e3bc2U, 0x3d5d86ddbe754307U, 0xbeb7f245be559d79U, 0x3e41d601be754307U,
  0x3e7d2c6a3dcdb416U, 0x3d1e3bc23e262526U, 0x3bfd2c6abe7937b8U, 0x3e067f983cdd86ddU,
  0xbe80908ebd6d59a3U, 0x3d1e3bc23e559d79U, 0x3db5f7ecbe0a744aU, 0x3d0e68fc3e45cab3U,
  0x3ef543073db5f7ecU, 0x3eb3fd93bc3de150U, 0xbcfd2c6a3d6d59a3U, 0x3d867f98bb7d2c6aU,
  0x3d5d86dd3e867f98U, 0xbea81f7ebefb3211U, 0x3d9e3bc23d6d59a3U, 0x3d96525f3e945806U,
  0xbeb008e23c9e3bc2U, 0x3e5d86dd3e9e3bc2U, 0xbe41d6013d2e0e89U, 0xbdfd2c6a3eb008e2U,
  0xbd654152bd83d25cU, 0xbea635c2beb5f8a6U, 0xbe4899283d70b7caU, 0xbe3a45133d9abf4bU,
  0xbd098d98be513201U, 0xbe207a86be2635c2U, 0xbe2913603c376775U, 0xbdf0b7cabcce5464U,
  0x3ea4c6f3be3489d7U, 0x3de54152be3a4513U, 0x3cfc2e41bd70b7caU, 0x3da07a86bd9abf4bU,
  0x3cb76775bcb76775U, 0xbd59cadb3d8f48d3U, 0xbe15040f3cfc2e41U, 0xbe1d9ce9bc654152U,
  0x3cce54643db76775U, 0x3cb767753d4e5464U, 0xbc098d98bca07a86U, 0xbb3767753dd40f9fU,
  0x3e9abf4b3cfc2e41U, 0x3e40004ebbb76775U, 0x3ca07a86bddf8617U, 0x3e4b76c63bb76775U,
  0xbe3489d7bdb76775U, 0x3d4e54643e15040fU, 0xbe098d98bc376775U, 0xbda635c23c898d98U,
  0xbdb1ac39bdabf0feU, 0xbe2635c2bdce5464U, 0xbcce546400000000U, 0x3dd40f9fbdd40f9fU,
  0x3e15040fbd42ddecU, 0x3e898d98bdf67305U, 0xbe12267100000000U, 0x3e540f9fbdabf0feU,
  0x3eb17a09be832daeU, 0xbd677dc9be63a217U, 0xbe0ae512be40e8d2U, 0xbdef352dbc76ec92U,
  0xbebd0d20bdef352dU, 0x3de77dc93ddfc664U, 0x3ecc7be9bdfea3f7U, 0x3de77dc93c39316eU,
  0xbdef352d3d929c77U, 0x3bf6ec92be63a217U, 0xbec6b25dbe29c2a4U, 0x3b76ec92bc9a53dbU,
  0x3dc8a037bea20b40U, 0x3cb9316e3cb9316eU, 0xbed0579b3e129c77U, 0xbd677dc93b76ec92U,
  0x3e8ec0c4be48a037U, 0xbe0ae512bd832daeU, 0x3ec8a037be5fc664U, 0x3da9c2a43b76ec92U,
  0xbee3a2173e7ea3f7U, 0x3e8709603e0ec0c4U, 0x3c9a53dbbe5beab2U, 0x3eb367e2be29c2a4U,
  0xbe88f739bd8ae512U, 0xbe90ae9e3d580f00U, 0xbe7310e03e54334dU, 0xbe63a217bdc0e8d2U,
  0x3ddfc664be39316eU, 0xbcb9316ebe220b40U, 0xbe4c7be93c76ec92U, 0xbe4c7be93d8ae512U,
  0x3dd80f003e129c77U, 0x3e6f352d3e317a09U, 0x3ef4feb9be129c77U, 0x3ea01d67be44c484U,
  0xbd16976f3c647bd4U, 0xbda8c4313d5f4a78U, 0xbcf941443d87035aU, 0xbcbaf0f33d16976fU,
  0xbda392d5bcb08e3bU, 0xbda62b833d7e72a1U, 0xbd4553ac3dd4e7c0U, 0xbd262b833d35bf97U,
  0xbd916613bc916613U, 0xbdec45de3d96976fU, 0xbdc7ec5a3d96976fU, 0x3cb08e3b3d69ad30U,
  0xbceede8c3c4fb664U, 0xbdf1773a3ccfb664U, 0xbd07035abcc553acU, 0xbc4fb664bba62b83U,
  0xbd4553acbd4a8508U, 0xbe24df2c3ceede8cU, 0xbba62b833d262b83U, 0xbd01d1fe3d07035aU,
  0xbd4553acbd116613U, 0xbdf6a8963cf94144U, 0xbd262b833d2b5cdfU, 0xbcf941443c4fb664U,
  0x3c794144bc262b83U, 0xbd99301dbd6ede8cU, 0xbca62b83bc916613U, 0xbd0c34b7bd6ede8cU,
  0xbd262b83bd87035aU, 0xbd899c083c794144U, 0x3c262b83bba62b83U, 0xbd4553acbd20fa27U,
  0xbce47bd4bc3af0f3U, 0xbdb85845bc87035aU, 0x3c4fb664bce47bd4U, 0xbd740fe8bcb08e3bU,
  0xbdbd8033bdee3ac4U, 0xbdcdbe64bc9799c3U, 0x3e8e20263df90ee4U, 0xbd0cc5a2bd1799c3U,
  0xbe42ea433d875b92U, 0x3e381623bd6e3ac4U, 0x3dc854533d922fb3U, 0x3d2d42033dc85453U,
  0xbe5dfc94bdbd8033U, 0x3d4dbe64bd1799c3U, 0x3d81f182bb2d4203U, 0x3dbd8033bd0cc5a2U,
  0x3c589284bdc85453U, 0xbe834c06bd9799c3U, 0x3dc85453be14e4bbU, 0xbd6366a4bd0cc5a2U,
  0xbd381623be0f7aaaU, 0x3b2d42033da7d7f3U, 0x3e73a4d4bda7d7f3U, 0xbd6e3ac43d2d4203U,
  0xbdb81623bd226de3U, 0x3e589284bd6e3ac4U, 0xbc01f182bd1799c3U, 0x3e226de3bd9d03d3U,
  0x3d875b92be0a109aU, 0x3eabe77fbe1799c3U, 0xbdddfc94bd875b92U, 0x3dad4203bd1799c3U,
  0x3e2d4203bc2d4203U, 0x3e55dd7cbdd32874U, 0xbe1799c3bdf3a4d4U, 0x3de8d0b43d226de3U,
  0x3e4b095c3db81623U, 0xbe81f182bdf3a4d4U, 0x3e42ea43bdc85453U, 0x3dee3ac43da7d7f3U,
  0xbdb97abc3d85f516U, 0x3daf2ccebc146230U, 0x3d28fe0cbd2d1d38U, 0x3be6d1a0bd313c64U,
  0xbd9ca0883d85f516U, 0x3cd654f0bbe6d1a0U, 0x3c5654f0bdbb8a52U, 0x3d7f8ca8bdb55b90U,
  0xbd774e503d8e336eU, 0x3d2d1d38bcce1698U, 0xbc9ca088bd9671c6U, 0xbc146230bd4e1698U,
  0xbde2b2743d92529aU, 0xbc774e50bba4dee0U, 0x3d24dee03c66d1a0U, 0x3d49f76cbcf74e50U,
  0xbdaf2cce3d24dee0U, 0xbc83e580bc146230U, 0x3d355b90bd24dee0U, 0x3d24dee0bd28fe0cU,
  0xbdbd99e83c146230U, 0x3c5654f0bd904304U, 0x3d104304bd313c64U, 0xbc66d1a0bdbfa97eU,
  0x3c83e5803d9a90f2U, 0xbe02ddb5bd98815cU, 0x3d6af0ccbd5654f0U, 0x3cef0ff8bc03e580U,
  0xbd9ca0883cbd99e8U, 0xbdad1d38bdad1d38U, 0x3cd654f0bcff8ca8U, 0x3c66d1a0bbe6d1a0U,
  0xbcef0ff83d397abcU, 0xbdb55b90bda0bfb4U, 0x3c774e50bd20bfb4U, 0xbba4dee000000000U,
  0xbd893be0be416002U, 0x3e061d6d3da86c65U, 0x3d609086bcc79ce9U, 0xbcaea94cbdf3473cU,
  0xbd222f7dbcf98423U, 0x3e254df13de09086U, 0x3de090863d609086U, 0xbc479ce9be061d6dU,
  0xbcf98423bd3b231aU, 0x3e3e418e3e0f78c7U, 0x3d5416b83d222f7dU, 0x3e2ea94cbdbb231aU,
  0x3df3473cbe848e33U, 0xbd3b231a3c798423U, 0xbcf98423bcc79ce9U, 0xbdf3473c3da22f7dU,
  0x3dda539fbde09086U, 0xbe093be0bc798423U, 0x3d093be03cc79ce9U, 0xbd479ce9bda22f7dU,
  0x3e254df13cc79ce9U, 0xbd6090863d6d0a55U, 0x3de6cd6d3c479ce9U, 0x3c95b5afbe0c5a54U,
  0x3d82fef9bec60dafU, 0x3e1f110abd893be0U, 0xbe447e75beb03886U, 0xbdf98423be5d7212U,
  0x3d093be0be1f110aU, 0x3e4dd9d0bde09086U, 0xbe0f78c7be95b5afU, 0x3b479ce9be222f7dU,
  0x3ce09086bcf98423U, 0x3d6d0a55bd3b231aU, 0xbda86c65be2ea94cU, 0x3cc79ce9be73473cU,
  0x3eae1daa3eb2d800U, 0xbf44ee26bea2a1ddU, 0x3e8cee05be6c9426U, 0x3e09d4f23ebabc61U,
  0x3c6105c03d6b2408U, 0x3c9747803e3c946aU, 0xbf6bac633eea8624U, 0xbd614aa03e2fb846U,
  0x3e6a77403ef0fa90U, 0xbf56ed503e0f48e0U, 0xbc506a00bd506a00U, 0x3e365cc03ebce010U,
  0xbe824240bec36360U, 0x3e88c5903e1c4f80U, 0x3ea2d2d03f261478U, 0x3e0f48e03e88c590U,
  0xbea2d2d03efe0130U, 0xbf63f3f03d9c4f80U, 0xbd506a003d9c4f80U, 0x3e95cc303edd70a0U,
  0x3efe01303e0f48e0U, 0x3e8242403e9c4f80U, 0x3e9c4f803f83e314U, 0x3dd06a003ea95620U,
  0xbe6a77403e436360U, 0xbec36360bd506a00U, 0xbcd06a00bcd06a00U, 0x3e5d70a03f0583e8U,
  0x3f190dd83e777de0U, 0x3e88c590bf2c97c8U, 0x3e9c4f803f80a16cU, 0xbcd06a00be0f48e0U,
  0x3f128a883ec36360U, 0xbf53aba83cd06a00U, 0xbedd70a0be824240U, 0x3e1c4f803e024240U,
  0x3d9c4f80bf295620U, 0x3e4363603d1c4f80U, 0x3e0f48e03ed6ed50U, 0xbd506a00bdd06a00U,
  0x3c506a003e295620U, 0xbf46a5083d824240U, 0xbee3f3f000000000U, 0x3e0242403eb65cc0U,
  0x3f399e68be1c4f80U, 0x3e777de03db65cc0U, 0x3eafd9703ec9e6b0U, 0xbe8242403e9c4f80U,
  0x3e0f48e03e295620U, 0xbe8f48e0bdb65cc0U, 0xbe5d70a0be824240U, 0x3e0f48e03ee3f3f0U,
  0x3f49e6b0be95cc30U, 0x3e506a00befe0130U, 0x3eafd9703ef77de0U, 0xbe436360bdd06a00U,
  0x3f0c07383e8f48e0U, 0xbf5d70a03c506a00U, 0xbe024240bdd06a00U, 0xbd9c4f803e295620U,
  0x3f777de0bf2c97c8U, 0x3ea2d2d03ebce010U, 0x3ed06a003e295620U, 0x3e5d70a0bd9c4f80U,
  0x3e9c4f803e295620U, 0xbfa614783c506a00U, 0xbd824240bcd06a00U, 0xbcd06a003d9c4f80U,
  0x3fbe80e4be295620U, 0x3e8242403e824240U, 0x3efe01303ec9e6b0U, 0x3dea77403d824240U,
  0x3e506a003e1c4f80U, 0xbf1f91283d1c4f80U, 0xbd9c4f80be9c4f80U, 0x3e0242403ec9e6b0U,
  0x3fcec92cbe8f48e0U, 0x3ea2d2d0be95cc30U, 0x3ea2d2d03f22d2d0U, 0xbe2956203d1c4f80U,
  0xbe6c0f5a3ea36d17U, 0x3f47be383f114486U, 0x3f3a1fcc3f310b83U, 0xbf7523a2bf83a619U,
  0xbf9144863e7e37eaU, 0x3eb595a8bfbc64deU, 0x3f95ceaabe114486U, 0x3c914486bfa5b229U,
  0x3e6c0f5a3e7e37eaU, 0x3f310b833ebea9f0U, 0x3e6c0f5a3f70997eU, 0xbfa7f73bbefe37eaU,
  0xbf95ceaa3ed9e6c9U, 0x3f2c815fbf8cba62U, 0x3faec671beec0f5aU, 0xbe236d17bea36d17U,
  0x3e9a58cebe3595a8U, 0x3e9a58cebef523a2U, 0x3f59e6c93e914486U, 0xbf9813bcbef523a2U,
  0xbe9144863ed9e6c9U, 0x3dfe37eabefe37eaU, 0x3f9ee2f33d114486U, 0xbf7523a23e914486U,
  0x3f3595a8bdfe37eaU, 0xbeb595a83e236d17U, 0x3f27f73b3fc57926U, 0x3f3a1fccbe88303eU,
  0xbf59e6c93e88303eU, 0x3e88303ebf9813bcU, 0x3f03a619bec7be38U, 0xbf114486bf88303eU,
  0x3f3a1fcc00000000U, 0x3ebea9f03e914486U, 0x3efe37ea3fb35095U, 0x3f15ceaa3d59e6c9U,
  0xbf85eb2cbdb595a8U, 0x3f0cba62bf5e70edU, 0x3ea36d173c914486U, 0xbe914486bef523a2U,
  0x3f4c485cbe114486U, 0xbc9144863c914486U, 0x3f5e70ed3f79adc6U, 0x3f1ee2f33e7e37eaU,
  0xbf236d17bf03a619U, 0xbc914486bdb595a8U, 0xbe114486be59e6c9U, 0xbf6c0f5abed9e6c9U,
  0x3f8161073dd9e6c9U, 0xbdfe37eabe9a58ceU, 0x3dd9e6c9401021fdU, 0x3f914486bf555ca5U,
  0x3e3595a83c914486U, 0xbe7e37eabf7e37eaU, 0xbe914486bf310b83U, 0xbf47be38bfd9e6c9U,
  0x3fc7be383d59e6c9U, 0x3e3595a8bc914486U, 0xbe59e6c9401021fdU, 0x3eec0f5abe114486U,
  0x3e7e37ea3dd9e6c9U, 0xbfa12805U, 0x3e3595a8bc914486U, 0xbf50d281bf70997eU,
  0x3f7e37eabdd9e6c9U, 0xbeac815fbe59e6c9U, 0x3dfe37ea3fc7be38U, 0x3f7523a2be114486U,
  0x3f85eb2c3e59e6c9U, 0x3e1144863dd9e6c9U, 0xbec7be38be6c0f5aU, 0xbf88303ebf555ca5U,
  0x3ec6a8ae3e9b33c8U, 0x3f5c63213fb0ee3bU, 0x3ef21d943e7852daU, 0x3dadd398be5f7dc4U,
  0x3c46a8aebc46a8aeU, 0x3f5f7dc4bf753837U, 0x3d94fe823c46a8aeU, 0xbf8a2149bedf7dc4U,
  0xbd46a8ae3cc6a8aeU, 0x3f90568e3f8706a6U, 0x3f11e3e03ee5b309U, 0x3d7852dabf0893f8U,
  0xbd14fe82bd14fe82U, 0x3f438e0bbf6be84fU, 0x3efe881f3e14fe82U, 0xbf753837be9b33c8U,
  0x3ed9487e3cc6a8aeU, 0x3f0bae9a3ee5b309U, 0x3f7e881fbd7852daU, 0x3dadd398be5f7dc4U,
  0x3ec073693ea79e53U, 0x3f49c351be9b33c8U, 0x3e3a3e233e8893f8U, 0xbfb408de3e14fe82U,
  0x3dc6a8ae3ef852daU, 0xbe8ec93d3f7e881fU, 0xbe7852da3efe881fU, 0x3e2dd3983e5f7dc4U,
  0xbedf7dc4bd14fe82U, 0x3eebe84fbf629866U, 0xbd14fe823e6be84fU, 0xbf46a8aebf68cdacU,
  0x3e8893f8U, 0xbc46a8ae3f8bae9aU, 0x3e3a3e233eb408deU, 0xbea79e533e6be84fU,
  0xbed313393e9b33c8U, 0x3eebe84fbf49c351U, 0xbdadd3983e46a8aeU, 0xbf68cdacbeccddf3U,
  0xbe5313393ea79e53U, 0x3e3a3e233edf7dc4U, 0x3ef852da3d94fe82U, 0xbe94fe82be531339U,
  0x3ddf7dc43ea79e53U, 0x3edf7dc43cc6a8aeU, 0xbd94fe823d7852daU, 0xbf65b309be8893f8U,
  0x3e21690d3f2dd398U, 0xbe5313393f9b33c8U, 0xbeccddf33e8ec93dU, 0x3f94fe823cc6a8aeU,
  0xbef852dabe2dd398U, 0x3f3408debfb72380U, 0xbd94fe823d14fe82U, 0xbf372380bfc51b5dU,
  0x3e8893f8bc46a8aeU, 0x3d94fe823fa1690dU, 0xbee5b3093ef21d94U, 0x3f30ee3bbd94fe82U,
  0xbe7852dabdadd398U, 0x3f407369bf9cc119U, 0x3dc6a8ae3d94fe82U, 0xbf59487ebf9fdbbcU,
  0x3eadd3983e6be84fU, 0xbcc6a8ae3eadd398U, 0xbe14fe823e46a8aeU, 0x3f6be84fbef852daU,
  0x3f0893f83ddf7dc4U, 0x3f753837be94fe82U, 0xbddf7dc4be94fe82U, 0xbfa61101bfac4647U,
  0x3ea03e85bf865286U, 0x3f705dc73f3c85caU, 0x3f08adcc3fa4f510U, 0x3f819bfb3e751453U,
  0xbe29ab9c3f24f510U, 0x3ef51453bc96d16eU, 0x3f992cb43f2e6227U, 0xbf751453bea9ab9cU,
  0x3f9476283dbc85caU, 0x3f203e853ee23a25U, 0x3f37cf3e3f751453U, 0x3eeba73c3ec5f2e0U,
  0xbf16d16e3efe816aU, 0x3f751453bebc85caU, 0x3f6ba73c3f3318b3U, 0xbe8d6457be8d6457U,
  0x3e751453bf24f510U, 0x3f16d16e3e751453U, 0x3f3318b33e96d16eU, 0x3f16d16ebe3c85caU,
  0xbe3c85ca3f79cadeU, 0x3de23a253e83f740U, 0x3fb573f83f08adccU, 0xbffe816abf29ab9cU,
  0x3f66f0b0bf03f740U, 0x3e7514533f29ab9cU, 0x3d623a253fa03e85U, 0xbeeba73c3e83f740U,
  0xbf751453bebc85caU, 0x3ed8cd0ebe83f740U, 0x3ee23a253d623a25U, 0xbf3318b3bf0d6457U,
  0x3f819bfb3e16d16eU, 0x3e4f5ff73e623a25U, 0x3f413c553f6ba73cU, 0xbe4f5ff73f4f5ff7U,
  0xbfb318b3bd96d16eU, 0x3f6ba73cbf08adccU, 0x3ebc85ca3eb318b3U, 0xbf413c55bf03f740U,
  0x3e623a253d623a25U, 0xbe96d16ebd96d16eU, 0x3f24f5103eeba73cU, 0x3d96d16ebe4f5ff7U,
  0xbf1b87f93e29ab9cU, 0x3eeba73c3e83f740U, 0xbd96d16eU, 0xbfdd839abf121ae3U,
  0xbe83f7403f37cf3eU, 0xbe03f7403e3c85caU, 0x3ebc85ca4015a3cbU, 0xbf24f510bf541683U,
  0xbf83f740bfb318b3U, 0x3f16d16ebecf5ff7U, 0x3f2e6227becf5ff7U, 0xbf24f510bf96d16eU,
  0x3f121ae33f79cadeU, 0xbec5f2e0be29ab9cU, 0x3f03f7403fb7cf3eU, 0xbf66f0b0bf29ab9cU,
  0xbfd1bb3dbfb7cf3eU, 0x3f45f2e0bfa03e85U, 0x3eeba73cbe751453U, 0xbe83f740bf865286U,
  0xbee23a253f9b87f9U, 0xbf0d6457bf0d6457U, 0xbea03e853f8fbf9dU, 0xbf2e6227bf3318b3U,
  0xbe623a25bfae6227U, 0x3e96d16ebf3c85caU, 0x3ebc85cabef51453U, 0xbfdb2854bfa299cbU,
  0xbc838bb43eb4e018U, 0x3f8599e33f8599e3U, 0x3f2ca75cbf66347bU, 0xbf6e6d36bf246ea1U,
  0xbf13fd2abf8dd29eU, 0x3d838bb4bfa05243U, 0x3eddfbc0bf38fc75U, 0x3f038bb4befedeadU,
  0x3eddfbc0be038bb4U, 0x3ef6a5f23f9e4415U, 0x3f07a812bf3d18d3U, 0xbfa88affbf55c304U,
  0x3dc5518ebfa46ea1U, 0x3e45518ebfbd18d3U, 0x3e34e018bf55c304U, 0x3f66347b3de6347bU,
  0x3ecd8a49bef6a5f2U, 0x3f288aff3f1c35e6U, 0x3f8fe0cdbf13fd2aU, 0xbfa88affbe55c304U,
  0xbf59df62bf8dd29eU, 0xbe838bb4bf838bb4U, 0xbc838bb4bee6347bU, 0x3f59df623d038bb4U,
  0x3e038bb43f0bc46fU, 0x3dc5518e3f55c304U, 0x3d45518ebfe009efU, 0xbf5dfbc0bf1c35e6U,
  0xbe66347bbe246ea1U, 0xbe13fd2abf038bb4U, 0x3eaca75cbe66347bU, 0x3ea46ea1bf55c304U,
  0xbe838bb43e66347bU, 0x3e9c35e63f838bb4U, 0xbeee6d36bf8bc46fU, 0xbf87a812bf07a812U,
  0xbdc5518ebeddfbc0U, 0xbe838bb4bf181988U, 0x3ee6347bbe246ea1U, 0x3ee6347bbf0bc46fU,
  0xbc838bb43d45518eU, 0xbe8bc46f3f4d8a49U, 0x3e93fd2abfa26072U, 0xbf0fe0cd3e838bb4U,
  0xbeddfbc0bee6347bU, 0x3c838bb4bd838bb4U, 0xbde6347bbea46ea1U, 0x3f038bb4be13fd2aU,
  0x3eb4e0183de6347bU, 0x3f817d853f07a812U, 0xbe45518ec002849dU, 0x3f038bb4be246ea1U,
  0x3e93fd2a3f246ea1U, 0xbd45518ebfd3b4d6U, 0x3e55c304bc838bb4U, 0x3d038bb4bf9a27b7U,
  0x3ebd18d3beee6d36U, 0x3f6a50d93f9a27b7U, 0xbf0bc46fbfb2d1e9U, 0x3ed5c3043ea46ea1U,
  0x3f51a6a73f66347bU, 0x3c838bb4bfbd18d3U, 0x3f13fd2abe038bb4U, 0xbe838bb4bf205243U,
  0x3eee6d36becd8a49U, 0x3ec5518e3f181988U, 0xbe45518ebfb6ee46U, 0x3eddfbc03e66347bU,
  0xbe838bb43f205243U, 0x3de6347bbf76a5f2U, 0x3ed5c3043e55c304U, 0x3e838bb4bf34e018U,
  0x3f3b1ac43ed1ec14U, 0x3f1208673e7f8eb4U, 0x3f84579d3f51ec14U, 0xbec8cb8ebe920867U,
  0xbf84579d3f244974U, 0x3ead69fabf88e7e1U, 0x3fa201523ee42d21U, 0xbe6d4da7bf51ec14U,
  0x3f0d78243d920867U, 0x3ead69fa3e368a81U, 0x3f31fa3e3f766e2eU, 0x3c9208673e48cb8eU,
  0xbf820f7c3f84579dU, 0x3f1fb931bf28d9b7U, 0x3f9d710f3eed4da7U, 0xbe368a81be88e7e1U,
  0x3f04579dbd920867U, 0x3ebfab07be920867U, 0x3f9450893ea44974U, 0xbddb0c9a3db68a81U,
  0xbe9208673f244974U, 0xbe368a81bd5b0c9aU, 0x3f8fc0453ee42d21U, 0xbf3b1ac43e9b28edU,
  0x3ebfab073dff8eb4U, 0xbe244974bd120867U, 0x3f368a813fb68a81U, 0xbedb0c9abe7f8eb4U,
  0xbf48cb8e3edb0c9aU, 0x3eb68a81bf8d7824U, 0x3ec8cb8ebeed4da7U, 0xbeff8eb4bf642d21U,
  0x3f567c57be368a81U, 0x3ea449743e9b28edU, 0x3e6d4da73fc1f329U, 0xbe48cb8ebf08e7e1U,
  0xbf7f8eb43edb0c9aU, 0x3f1698aabf5b0c9aU, 0x3ef66e2ebea44974U, 0xbf2d69fabec8cb8eU,
  0x3f7afe713db68a81U, 0xbeed4da73eed4da7U, 0x3f68bd643f5b0c9aU, 0xbee42d213e244974U,
  0xbead69fa3dff8eb4U, 0x3d5b0c9a3e7f8eb4U, 0xbebfab07bec8cb8eU, 0xbf6d4da7bc920867U,
  0x3f4d5bd13e9b28edU, 0x3d5b0c9abf04579dU, 0x3e48cb8e4010e456U, 0x3f0d7824bf9d710fU,
  0x3e6d4da7U, 0xbddb0c9abf642d21U, 0xbd5b0c9abf1fb931U, 0xbf68bd64bfc8cb8eU,
  0x3f9450893eb68a81U, 0xbd120867be120867U, 0xbea4497440069fbfU, 0x3f6d4da7beff8eb4U,
  0x3e5b0c9a3ef66e2eU, 0x3e368a81bf642d21U, 0xbdff8eb4be5b0c9aU, 0xbf1fb931bf120867U,
  0x3f3fab073e9b28edU, 0xbf04579d3db68a81U, 0xbe6d4da740020f7cU, 0x3f3b1ac4beff8eb4U,
  0x3f8b3002bdb68a81U, 0xbd5b0c9a3f3b1ac4U, 0xbe368a81bd920867U, 0xbf98e0ccbf48cb8eU,
  0x3e308598bf4f69c6U, 0x3efff4ea3f1edea3U, 0x3eb959133f34ef56U, 0x3e3085983df7216fU,
  0xbc8d37ad3f6110bcU, 0x3ec22c8e3eb08598U, 0x3f3085983e846432U, 0xbe9edea3bec22c8eU,
  0x3f395913be308598U, 0x3ec22c8e3eb08598U, 0x3f0464323f308598U, 0x3d8d37ad3e1edea3U,
  0xbdb085983ecb0009U, 0x3ef7216f3e53d384U, 0x3f3085983f2c1bdbU, 0xbe308598bea7b21dU,
  0x3e960b28bedca6feU, 0x3ef7216f3e960b28U, 0x3ec22c8e3e422c8eU, 0x3db08598be422c8eU,
  0xbeb959133f846432U, 0xbe9edea33f11a16aU, 0x3f422c8e3ef7216fU, 0xbf93d649bea7b21dU,
  0x3e9edea3bedca6feU, 0x3e77216f3f234860U, 0x3e960b283f869911U, 0xbedca6febe9edea3U,
  0xbf583d413ea7b21dU, 0x3e8d37ad3e657a79U, 0x3f0464323e77216fU, 0xbf1edea3bf08cdf0U,
  0x3f822f533db08598U, 0x3db085983e8d37adU, 0x3ed3d3843f77216fU, 0xbe53d3843e657a79U,
  0xbf88cdf03db08598U, 0x3f11a16abd53d384U, 0x3dd3d384bd0d37adU, 0xbed3d384befff4eaU,
  0x3ee57a793dd3d384U, 0xbc8d37ad3ef7216fU, 0x3df7216f3f160b28U, 0xbeb95913U,
  0xbf583d413d53d384U, 0xbdb085983eb95913U, 0xbe3085983e308598U, 0xbf8d37adbf308598U,
  0x3f160b283eee4df4U, 0xbd8d37ad3e53d384U, 0xbd53d384400c1d3eU, 0xbc8d37adbf11a16aU,
  0xbf422c8ebf308598U, 0x3f08cdf03c8d37adU, 0x3f11a16abe77216fU, 0xbeb95913bf046432U,
  0x3f3085983f4f69c6U, 0xbe657a79beb95913U, 0x3f160b283fc8cb2aU, 0xbe77216f3c8d37adU,
  0xbf7b8b2cbf4b0009U, 0x3f2c1bdbbe422c8eU, 0x3ec22c8ebd8d37adU, 0xbee57a79befff4eaU,
  0x3eb959133f1a74e5U, 0xbe53d384be0d37adU, 0x3d53d3843fb2ba77U, 0xbedca6febed3d384U,
  0xbedca6febf4b0009U, 0x3e1edea3U, 0xbe308598U, 0xbf93d649bf69e437U,
  0xbd2e0bafbf1f8ab6U, 0x3e0288c3bdae0bafU, 0xbf31abed3eae0bafU, 0xbe89c940bf2a6b71U,
  0xbf87f9213ef6908dU, 0xbf354c2cbd9109bcU, 0x3e0288c3be2e0bafU, 0x3ed24e1e3ef6908dU,
  0x3e8288c3bd9109bcU, 0x3e1f8ab600000000U, 0xbed24e1e3efdd10aU, 0xbe1109bcbf062902U,
  0xbf92d9dc3d2e0bafU, 0xbf2e0baf3dae0bafU, 0x3e76908dbed24e1eU, 0x3ecb0da2bf31abedU,
  0xbd9109bcbd680f94U, 0x3f7dd10a3f1f8ab6U, 0xbe3c8ca83ee0cf17U, 0x3efdd10abeb54c2cU,
  0xbfa6cb323f1109bcU, 0xbe598e9bbeef5011U, 0xbd2e0bafbea6cb32U, 0xbce80f94bf4b0da2U,
  0x3e2e0bafbf09c940U, 0x3e984a39bd2e0bafU, 0xbc680f94be9f8ab6U, 0x3e89c940bf7a30ccU,
  0xbf26cb323f38ec6aU, 0xbef6908d3e680f94U, 0x3ee0cf17beef5011U, 0x3f8458e23d9109bcU,
  0xbde80f94bf0288c3U, 0x3e680f943dae0bafU, 0xbe1109bcbe984a39U, 0x3ebc8ca8bf1f8ab6U,
  0xbf402ce73ef6908dU, 0xbebc8ca83ebc8ca8U, 0x3ecb0da2bf1f8ab6U, 0x3ee80f94bf062902U,
  0x3d680f94bea6cb32U, 0x3f8629023efdd10aU, 0x3e680f94bf09c940U, 0x3f967a1abf4b0da2U,
  0xbf7a30cc3efdd10aU, 0xbe1f8ab6be4b0da2U, 0x3e2e0bafbe1109bcU, 0x3f354c2cbed98e9bU,
  0x3f4eade0bee0cf17U, 0x3e984a39bd2e0bafU, 0xbeef5011bf1f8ab6U, 0x3de80f94bf14a9fbU,
  0xbfe63f753f5d2ed9U, 0xbe76908d3ecb0da2U, 0x3ed24e1e3d2e0bafU, 0x3fafdbce3ea6cb32U,
  0x3eae0bafbe1f8ab6U, 0x3f1bea773e76908dU, 0xbe1109bcbecb0da2U, 0x3f14a9fbbeef5011U,
  0xbfceade03f524e1eU, 0xbdae0baf3ed98e9bU, 0x3e984a393e0288c3U, 0x3f4b0da2be9109bcU,
  0x3f646f56be0288c3U, 0x3fa32af43f38ec6aU, 0xbe2e0bafbf3c8ca8U, 0x3f76908d3e89c940U,
  0xbfd41e3d3f1f8ab6U, 0xbd2e0bafbdcb0da2U, 0xbd9109bc3e1f8ab6U, 0x3f984a39bef6908dU,
  0x3f1164ca3ee8a144U, 0x3f2e78f33f68a144U, 0x3eda1730bf772b58U, 0x3f1164cabef72b58U,
  0x401c4c5abdae78f3U, 0xbeae78f33e82dab6U, 0x3f2733e93ebd0307U, 0xbe9feedfbf772b58U,
  0x3ebd03073f6fe64eU, 0x3f35bdfdbdae78f3U, 0x3f950750bef72b58U, 0xbe68a1443e2e78f3U,
  0x3fc448113de8a144U, 0x3dae78f33ce8a144U, 0x3e2e78f3bce8a144U, 0xbce8a1443d68a144U,
  0x3e82dab63d68a144U, 0xbe9164cabd68a144U, 0x3f9507503f1feedfU, 0xbe2e78f3be4b8d1cU,
  0xc01164cabde8a144U, 0xbe4b8d1cbf867d3bU, 0xbecb8d1cbf35bdfdU, 0x3eda17303e9feedfU,
  0x3f18a9d53f1164caU, 0x3d68a1443e82dab6U, 0x3de8a144bf2e78f3U, 0x3e9164cabebd0307U,
  0x3fda17303e68a144U, 0x3ce8a144beae78f3U, 0x3f0a1fc0bf02dab6U, 0xbee8a144bf950750U,
  0x3ce8a1443de8a144U, 0x3d68a1443e68a144U, 0x3e2e78f300000000U, 0x3e68a1443e1164caU,
  0x3f8dc2453e82dab6U, 0x3d68a1443ce8a144U, 0x3ce8a144bef72b58U, 0xbee8a1443d68a144U,
  0x3e68a144bdae78f3U, 0xbeda1730be1164caU, 0x3f9c4c5a3f444811U, 0x3e82dab63eae78f3U,
  0xbfc7ea96be4b8d1cU, 0x3e4b8d1cbf2e78f3U, 0xbf2733e9bf4b8d1cU, 0x3e68a1443e9feedfU,
  0xbd68a144U, 0x3e9feedf3e9feedfU, 0xbf1164cabf18a9d5U, 0x3f1164cabce8a144U,
  0x4066d0013f444811U, 0xbe9feedfbdae78f3U, 0xbe4b8d1cbde8a144U, 0xbf52d226bfe4febfU,
  0xbef72b58be82dab6U, 0x3ecb8d1cbd68a144U, 0x3eae78f300000000U, 0xbde8a144be4b8d1cU,
  0x4049bbd93e82dab6U, 0xbdae78f33dae78f3U, 0xbf1feedfbe82dab6U, 0xbf52d226bd68a144U,
  0xbf1feedfU, 0xbecb8d1cbf0a1fc0U, 0x3f18a9d53f5a1730U, 0x3ee8a144bdae78f3U,
  0xbfefe64e3ce8a144U, 0x3de8a144bf6fe64eU, 0xbf0a1fc0bf6fe64eU, 0x3e9164cabe9feedfU,
  0x3f024bbe3f407b87U, 0x3f3d85713f1fe897U, 0xbeb1ad1abcbd8571U, 0xbe25d4c33da5d4c3U,
  0xbef2d2f9befeab50U, 0x3fbc0a66bf2bc0eeU, 0x3c3d8571bda5d4c3U, 0xbf2bc0ee3d8e2415U,
  0x3f0541d33f0837e9U, 0x3eabc0ee3f0837e9U, 0xbdd5361fbdbd8571U, 0xbd6ce6cd3e78bf24U,
  0xbeabc0eebe8837e9U, 0x3fb4a330bf3d8571U, 0x3e99fc6c3d0e2415U, 0xbf582c3500000000U,
  0x3eabc0ee3e25d4c3U, 0x3f111a2b3e495dc8U, 0x3dece6cdbee6faa2U, 0x3e78bf24bef2d2f9U,
  0x3e495dc83ecf49f4U, 0x3fabc0eebec95dc8U, 0xbdd5361f3e824bbeU, 0xbf6ce6cd3d3d8571U,
  0x3e31ad1a3f6fdce3U, 0x3e024bbe3f0e2415U, 0xbf2eb7043d6ce6cdU, 0x3f25d4c33f1fe897U,
  0xbf4c53debe8837e9U, 0x3f610e76bee6faa2U, 0x3dece6cdbcbd8571U, 0xbf19fc6c00000000U,
  0xbdbd85713eabc0eeU, 0xbd8e24153e8837e9U, 0xbe55361fbea5d4c3U, 0x3f0837e93e824bbeU,
  0xbf024bbe00000000U, 0x3f3d8571bef8bf24U, 0xbda5d4c33d8e2415U, 0xbf141040be19fc6cU,
  0x3dbd85713ebd8571U, 0x3f1706563eb79945U, 0x3e9fe897be495dc8U, 0x3eb1ad1a3cbd8571U,
  0x3e024bbe3ea5d4c3U, 0x3f66faa2bda5d4c3U, 0x3d6ce6cd3e6ce6cdU, 0xbf6ce6cdbe3d8571U,
  0x3e31ad1a3f28cad9U, 0xbd0e24153f495dc8U, 0xbf8b2dffbe824bbeU, 0x3e610e763eb1ad1aU,
  0xbef8bf24bcbd8571U, 0x3faa45e4bf3d8571U, 0x3e8837e9bd0e2415U, 0xbf28cad9be9fe897U,
  0xbcbd85713ed5361fU, 0x3e8e24153f170656U, 0xbf1cf282be941040U, 0x3e6ce6cdbe78bf24U,
  0xbeece6cdbdbd8571U, 0x3fb4a330bf495dc8U, 0x3e8837e93cbd8571U, 0xbf7bb53abee10e76U,
  0x3da5d4c33d3d8571U, 0x3e78bf243f0e2415U, 0x3eb79945bee10e76U, 0x3ec95dc8be0e2415U,
  0x3f8541d33ebd8571U, 0x3fb1ad1abf379945U, 0xbdbd8571be3d8571U, 0xbfaa45e4bf3a8f5bU,
  0x3f8f5f84be9c6833U, 0xbedf7049bf4cd198U, 0xbfa79437bd6e55a3U, 0xbe32c03abc6e55a3U,
  0xbf87ecd7be6e55a3U, 0x3e8d82d93dd08aefU, 0xbdb2c03a3cee55a3U, 0x3f41a5943eab4d8dU,
  0x3f32c03abe6e55a3U, 0xbe86102cbf7d3afdU, 0xbfec78f8bcee55a3U, 0x3ed08aef3e41a594U,
  0xbf843380bdd08aefU, 0x3f14f5863d94f586U, 0xbe5f7049be508aefU, 0x3ec918423ed7fd9cU,
  0x3edf7049be86102cU, 0xbe86102cbe508aefU, 0xbf455eebbe86102cU, 0xbdb2c03abe14f586U,
  0xbf8ba62ebdb2c03aU, 0x3f5bb6f2bc6e55a3U, 0xbedf7049bed08aefU, 0x3f20218a3e5f7049U,
  0x3f2b4d8dbe7d3afdU, 0xbd94f586bf2b4d8dU, 0xbf6a9c4cbd32c03aU, 0x3f2794373e7d3afdU,
  0xbf720efa3cee55a3U, 0x3e7d3afd3e94f586U, 0x3f1c68333ec91842U, 0x3f2f06e43ed7fd9cU,
  0x3eba32e7bedf7049U, 0x3e32c03abf86102cU, 0xbf720efabec91842U, 0x3f8433803ed08aefU,
  0xbf96d2313cee55a3U, 0x3f23dae03f455eebU, 0x3e41a594be9c6833U, 0x3ec918423edf7049U,
  0x3ed7fd9cbe41a594U, 0xbe508aefbcee55a3U, 0xbe6e55a3beab4d8dU, 0x3faf06e4bdee55a3U,
  0xbf508aefbe5f7049U, 0x3fa3dae03ed7fd9cU, 0xbc6e55a3beab4d8dU, 0x3eba32e73eee55a3U,
  0x3f63299fbe94f586U, 0x3db2c03abe8d82d9U, 0xbfe6e2f63dee55a3U, 0x3e14f5863c6e55a3U,
  0x3e32c03a3ea3dae0U, 0x3f913c2f3f06102cU, 0x3f491842be06102cU, 0x3fad2a383eba32e7U,
  0x3e7d3afdbf3a32e7U, 0x3e5f7049bf367991U, 0xbfc55eebbe86102cU, 0x3f113c2fbe7d3afdU,
  0xbf20218a00000000U, 0x3f89c9823f23dae0U, 0x3c6e55a33cee55a3U, 0x3f87ecd73f6e55a3U,
  0x3db2c03abf3a32e7U, 0x3e508aefU, 0xbf18aedcbf23dae0U, 0x3eab4d8dbe508aefU,
  0xbe32c03a3cee55a3U, 0x3fd44445be23dae0U, 0x3d6e55a3bf0d82d9U, 0x3f6a9c4c3eb2c03aU,
  0x3e570360bf4b7ea0U, 0xbf3c22f4bdf5bab7U, 0xbf628821bedeb136U, 0x3e1994b23cf5bab7U,
  0x3f5ada4bbea8f05eU, 0x3eb84c093f0a3907U, 0x3eb84c09be570360U, 0x3cf5bab73e28f05eU,
  0x3e47a7b5bf6a35f6U, 0xbedeb136beb09e34U, 0xbf1d6b9dbc75bab7U, 0xbcf5bab7bd75bab7U,
  0x3f665f0cbe665f0cU, 0x3eb84c093df5bab7U, 0x3d75bab7bdb84c09U, 0xbc75bab73f11e6ddU,
  0xbc75bab7bf34751eU, 0xbeb09e34bedeb136U, 0xbe1994b2be665f0cU, 0x3e0a3907be828b31U,
  0xbeee0ce1be75bab7U, 0xbf11e6ddU, 0x3df5bab7bc75bab7U, 0x3efd688d3f1d6b9dU,
  0x3dd70360bf97a93dU, 0xbed70360be828b31U, 0xbf3ff9dfbe75bab7U, 0xbe665f0cbe665f0cU,
  0x3f665f0cbea8f05eU, 0x3ee65f0c3e0a3907U, 0x3db84c093dd70360U, 0x3c75bab73d9994b2U,
  0xbc75bab7bf9f5713U, 0xbc75bab7bdb84c09U, 0xbf2142883cf5bab7U, 0xbe1994b23db84c09U,
  0x3f809fbcbdd70360U, 0x3ebff9dfbe1994b2U, 0xbe28f05ebd9994b2U, 0xbe28f05e3eee0ce1U,
  0x3d9994b2bf91e6ddU, 0xbe828b31bea8f05eU, 0xbed70360be665f0cU, 0xbd9994b2bdf5bab7U,
  0xbf0e0ff2befd688dU, 0xbcf5bab7bf2cc749U, 0xbe75bab7be828b31U, 0xbc75bab73ef5bab7U,
  0x3dd70360bf97a93dU, 0xbe91e6ddbc75bab7U, 0xbf7d688dbe91e6ddU, 0x3e665f0cbd75bab7U,
  0x3ff3cf42bea8f05eU, 0x3f1994b23e9994b2U, 0xbc75bab73cf5bab7U, 0x3db84c0900000000U,
  0x3e665f0cbf9f5713U, 0xbe28f05ebe75bab7U, 0xbf532c75bc75bab7U, 0xbd384c093c75bab7U,
  0x3ff1e3cc3e28f05eU, 0x3eb84c0900000000U, 0xbea1428800000000U, 0xbd384c093f15bdc8U,
  0x3ea14288bf93d252U, 0xbcf5bab7bec7a7b5U, 0xbf28f05ebdb84c09U, 0xbe5703603d9994b2U,
  0xbe47a7b5be91e6ddU, 0xbdb84c09bf06621cU, 0xbdb84c093e0a3907U, 0x3e1994b23e9994b2U,
  0x3dbf2fe33f61b4faU, 0xbe14b3773c29f1adU, 0x3dfeea84bd94b377U, 0xbee9ac4e3ecf1e8bU,
  0xbea9f1adbe0a145dU, 0x3eb9e055bec9cefdU, 0x3dbf2fe33f88c079U, 0xbda9f1ad3d94b377U,
  0xbda9f1ad3f472737U, 0xbe9f5292bca9f1adU, 0xbe3f2fe33dfeea84U, 0xbe9a03053ed9bda6U,
  0x3d546e183dbf2fe3U, 0x3dd46e18bd7eea84U, 0x3e744b693f9dfeafU, 0x3d7eea84bc29f1adU,
  0xbcfeea843f41d7a9U, 0xbc29f1adU, 0x3e14b377bdd46e18U, 0xbea9f1ad3f1a0305U,
  0x3ebf2fe33e7eea84U, 0x3e1f5292bed9bda6U, 0xbc29f1ad3f8e1007U, 0xbe7eea84bf21fa59U,
  0x3f1f52923f2c9974U, 0xbef44b693dfeea84U, 0xbea4a220be7eea84U, 0xbeb490c83dfeea84U,
  0xbe29f1adbec47f70U, 0x3e49cefdbeb9e055U, 0x3e29f1ad3f120bb1U, 0xbf021d083dd46e18U,
  0x3de9ac4e3f14b377U, 0xbeeefbdb3d94b377U, 0xbe94b37700000000U, 0xbf1f52923e8a145dU,
  0x3eeefbdbbe69ac4eU, 0x3e546e18be14b377U, 0x3e8a145d3f3490c8U, 0xbde9ac4ebe3f2fe3U,
  0x3ef99af6U, 0xbeb9e0553e49cefdU, 0xbe94b377be5f0d33U, 0xbeaf413a3ee45cc0U,
  0x3f175b3ebdfeea84U, 0x3e5f0d33bf021d08U, 0x3da9f1ad3f645cc0U, 0xbe3490c8beb490c8U,
  0x3ea4a2203f31e901U, 0xbf37388f3eb9e055U, 0xbe29f1adbca9f1adU, 0xbf175b3e3e29f1adU,
  0x3f3f2fe3be29f1adU, 0x3ecf1e8b3dbf2fe3U, 0x3f31e9013edf0d33U, 0x3e5f0d333c29f1adU,
  0x3e49cefd3e7eea84U, 0xbf6704873ea4a220U, 0xbe49cefd3ca9f1adU, 0xbeb9e0553e9a0305U,
  0x3f98af213d7eea84U, 0x3ed9bda63cfeea84U, 0x3f21fa593f4c76c4U, 0x3e744b693da9f1adU,
  0x3e49cefd3ef99af6U, 0xbf3f2fe33e546e18U, 0xbe3f2fe3be5f0d33U, 0xbe1f52923e3f2fe3U,
  0x3fa89dcabdbf2fe3U, 0x3eb9e055be84c4cfU, 0x3f120bb13f3c881cU, 0xbd7eea84be3490c8U,
  0x3dc4a6e33e75d09bU, 0x3dd8512dbed8512dU, 0x3e6226523e9867bdU, 0xbeb5e72bbebfbc50U,
  0xbea23ce13d89a805U, 0xbe4e7c08bf99a261U, 0x3f24b22bbdd8512dU, 0x3f3d4707be1d524fU,
  0x3c1d524f3e1d524fU, 0x3f1d524fbd44a6e3U, 0x3e937d2a3ec4a6e3U, 0xbf09a805be4e7c08U,
  0xbf1867bd3ebad1beU, 0xbf2c1206U, 0x3f0e9298bebad1beU, 0x3f8382ce3c9d524fU,
  0xbe58512d00000000U, 0x3e272774bc1d524fU, 0xbd9d524f3dc4a6e3U, 0xbf24b22b3c9d524fU,
  0xbf735b523d6bfb76U, 0xbf735b52bdb0fc99U, 0x3f137d2abe58512dU, 0x3f1add063eac1206U,
  0xbece7c083e3ad1beU, 0xbc1d524fbedd3bbfU, 0x3e937d2a3effa5c0U, 0xbf3d4707bf42319aU,
  0xbebad1bebcebfb76U, 0xbe58512dbf9c17aaU, 0xbd1d524fbee22652U, 0x3f385c753db0fc99U,
  0xbe7fa5c03e09a805U, 0x3eb0fc99bdebfb76U, 0x3e1d524f3f0e9298U, 0xbf75d09bbf0732bcU,
  0xbf1867bdbd9d524fU, 0xbd44a6e3beac1206U, 0x3e4e7c08bef0e609U, 0x3eb5e72bbc1d524fU,
  0xbf0248293dc4a6e3U, 0x3dc4a6e33d6bfb76U, 0x3e3ad1be3e75d09bU, 0xbf5fb108bf1107e1U,
  0xbf8382cebe6bfb76U, 0xbf9107e13d89a805U, 0x3d6bfb76bee710e4U, 0x3debfb763e3ad1beU,
  0x3effa5c0bd1d524fU, 0x3e9867bdbf6710e4U, 0x3ec4a6e33f42319aU, 0xbec99175bef5d09bU,
  0x3e3ad1be3c1d524fU, 0xbf2e8750bf6710e4U, 0xbebad1bebf5ac676U, 0x3dd8512d3d9d524fU,
  0x3eb5e72b3e58512dU, 0x3ec99175bece7c08U, 0xbc1d524f3f8ae2aaU, 0xbdffa5c0bf3ad1beU,
  0xbe9867bd3db0fc99U, 0xbf0c1d4ebefabb2eU, 0xbe272774bf0732bcU, 0x3dffa5c03d44a6e3U,
  0x3effa5c03e272774U, 0xbdd8512dbc9d524fU, 0x3e1d524f3f50f151U, 0xbd44a6e3bed8512dU,
  0xbf69862dbe4e7c08U, 0xbf8ae2aa3f223ce1U, 0xbec4a6e3bf15f273U, 0x3e30fc99bd6bfb76U,
  0xbe0042ccbe51e1aaU, 0xbf29123bU, 0x3e0bebc7be9d6940U, 0xbf032d0bbf4922eeU,
  0xbfb91a953c3a8fb4U, 0x3d6933a1bf434e70U, 0x3d6933a1bf14aa83U, 0x3d6933a13e9794c2U,
  0xbe5d8aa6bec06432U, 0xbe8042ccbf0042ccU, 0x3d6933a1bdba8fb4U, 0xbe3a8fb4bf29123bU,
  0xbf71f25dbda33dbeU, 0x3ecc0d2dbed1e1aaU, 0x3dba8fb4bee933a1U, 0xbe0bebc73f3d79f3U,
  0xbef4dc9cbee35f23U, 0xbe0042ccbdd1e1aaU, 0x3ed1e1aabdd1e1aaU, 0xbc3a8fb4bf032d0bU,
  0xbf4638af3e2ee6b9U, 0xbe0042ccbf31d0f8U, 0xbf31d0f800000000U, 0xbee933a13ef4dc9cU,
  0x3da33dbebe8bebc7U, 0xbe91c045beb4bb36U, 0xbd6933a1bf14aa83U, 0x3ee35f23bf71f25dU,
  0xbf81b7ebbe74dc9cU, 0x3e9d69403cba8fb4U, 0x3f1d6940bf6f081fU, 0x3ef4dc9cbea9123bU,
  0xbc3a8fb4bf37a575U, 0xbde933a1be51e1aaU, 0xbe0042ccbedd8aa6U, 0x3ec06432bf11c045U,
  0xbf961fa3be233dbeU, 0x3f2627fc3d3a8fb4U, 0x3f2bfc7abf1d6940U, 0x3e9d69403ec06432U,
  0x3da33dbebf71f25dU, 0xbea33dbe3c3a8fb4U, 0x3eba8fb4bec638afU, 0x3f29123bbf1794c2U,
  0xbf8bebc7bdba8fb4U, 0x3e6933a13e0bebc7U, 0xbda33dbebf2ee6b9U, 0xbe5d8aa63dd1e1aaU,
  0xbe4638af3eba8fb4U, 0xbd3a8fb4bea9123bU, 0xbeef081fbf4c0d2dU, 0xbf1794c2bf31d0f8U,
  0xbf6649623cba8fb4U, 0x3f51e1aa3ecc0d2dU, 0x3f57b628bef4dc9cU, 0x3f4638afbf74dc9cU,
  0xbe6933a1bde933a1U, 0x3d0bebc7be4638afU, 0xbf061749bf4ef76cU, 0x3d0bebc7becc0d2dU,
  0xbfb91a95be4638afU, 0x3f4ef76c3f2ee6b9U, 0x3f1794c2bf31d0f8U, 0x3e3a8fb4be91c045U,
  0x3d6933a13d3a8fb4U, 0xbe74dc9cbe8bebc7U, 0x3d3a8fb4bf84a22aU, 0xbe233dbebf0042ccU,
  0xbfabfc7a3d3a8fb4U, 0x3f0bebc7bd8bebc7U, 0xbe6933a1bedd8aa6U, 0xbecc0d2dbf0042ccU,
  0x3c81e922be531ad7U, 0xbd01e922bf7fc2fbU, 0x3eeb768ebe122646U, 0xbf2672b4bf2a81fdU,
  0xbfe357fcbde357fcU, 0x3d81e922bf7bb3b2U, 0xbd01e922bf01e922U, 0x3e8a07b43edb3969U,
  0xbf01e922bc81e922U, 0xbec2ddb3bf16358fU, 0x3e6357fcbda2636aU, 0xbe9a44d8bd81e922U,
  0xbf96358fbe6357fcU, 0x3eb2a08fbf32a08fU, 0xbd42ddb3bedb3969U, 0x3e6357fc3f4f0b8eU,
  0xbe739520bee357fcU, 0xbf32a08fbeb2a08fU, 0x3f32a08fbc81e922U, 0x3e9226463e8a07b4U,
  0xbf85f86b3d42ddb3U, 0x3d01e922bf3ece6aU, 0xbf9226463e32a08fU, 0xbd42ddb33f122646U,
  0xbeb2a08fbed31ad7U, 0x3ea2636abeaa81fdU, 0xbecafc45bf22636aU, 0xbde357fcbf83f0c7U,
  0xbfb2a08f3d42ddb3U, 0x3e8a07b4bde357fcU, 0x3f6357fcbf2a81fdU, 0x3f5b3969beaa81fdU,
  0xbe9a44d8bd42ddb3U, 0xbebabf21be922646U, 0xbe6357fcbefbb3b2U, 0x3da2636abea2636aU,
  0xbfd72a20be739520U, 0x3f2672b43e01e922U, 0x3f2672b4bf22636aU, 0x3f1a44d83e122646U,
  0xbda2636abf0a07b4U, 0xbe122646bd01e922U, 0x3f1a44d8befbb3b2U, 0x3e9a44d8be8a07b4U,
  0xbfa05bc6be22636aU, 0x3e81e9223d01e922U, 0x3e01e922be42ddb3U, 0x3de357fc3e42ddb3U,
  0xbe531ad73eaa81fdU, 0x3eeb768ebe122646U, 0xbf42ddb3bf6f85d7U, 0xbf0a07b4bf122646U,
  0xbfae9146be8a07b4U, 0x3f739520bd42ddb3U, 0x3f9c4c7dbf42ddb3U, 0x3fd31ad7bf2e9146U,
  0xbde357fc3e22636aU, 0x3de357fcbd81e922U, 0xbf1a44d8bf1e5421U, 0xbeb2a08fbee357fcU,
  0xc000e550bc81e922U, 0x3f901ea23e01e922U, 0x3f572a20bf572a20U, 0x3f676745bef39520U,
  0xbecafc45U, 0x3e42ddb3bda2636aU, 0xbecafc45bf81e922U, 0x3eaa81fdbeaa81fdU,
  0xbfe96ee9bde357fcU, 0x3f2672b4bf0e16fdU, 0x3f1e5421bf0e16fdU, 0x3e122646bf2a81fdU,
  0x3dd7f2a53e715a7cU, 0xbe12151500000000U, 0xbe9b9c06bef48777U, 0x3e82342f3da522f6U,
  0x3dbe8acdbe4b3eb9U, 0x3ec1b7c8be2522f6U, 0x3e4b3eb93ed7f2a5U, 0xbe8bbb1f3e0bbb1fU,
  0xbc986f0b3e2b7cecU, 0xbea522f63d8bbb1fU, 0xbe121515bee17995U, 0x3e8561293e5198afU,
  0x3c986f0bbdd7f2a5U, 0x3e121515be3e8acdU, 0x3ea522f63ed7f2a5U, 0xbec4e4c33e121515U,
  0x3bcb3eb93d186f0bU, 0xbe64a6903db1d6e2U, 0xbe6b0086befe0e67U, 0x3e5e4c9a3e954210U,
  0x3e77b471be4b3eb9U, 0x3d986f0bbea522f6U, 0x3d7e0e673ef7b471U, 0xbedb1f9fbdcb3eb9U,
  0x3e77b4713d8bbb1fU, 0xbed7f2a53d986f0bU, 0xbda522f6be57f2a5U, 0x3d986f0b3e57f2a5U,
  0xbe056129be77b471U, 0x3e8bbb1fbe0bbb1fU, 0x3e986f0b3eab7cecU, 0xbe9ec9013e82342fU,
  0xbd186f0b3dbe8acdU, 0xbf0561293d64a690U, 0xbe186f0bbe77b471U, 0xbd64a6903e121515U,
  0xbdb1d6e2bdf15a7cU, 0x3e57f2a5bd986f0bU, 0x3eab7cec3e9b9c06U, 0xbe6b00863d7e0e67U,
  0xbccb3eb93e186f0bU, 0xbf0a24a23e186f0bU, 0xbdcb3eb9bea522f6U, 0x3bcb3eb93d8bbb1fU,
  0x3e8ee81abe44e4c3U, 0x3e2522f6be77b471U, 0x3e5e4c9a3eb503ddU, 0xbec811be3df15a7cU,
  0x3e3830d8bccb3eb9U, 0xbf3503dd3e57f2a5U, 0xbe954210bf13ab92U, 0x3e5198afbc986f0bU,
  0x3de4a690bec811beU, 0x3ea522f63e056129U, 0x3eb830d83e9b9c06U, 0xbe186f0b3d7e0e67U,
  0x3d8bbb1fbd986f0bU, 0xbf4811be3e1ec901U, 0xbe8ee81abf056129U, 0x3e1215153e31d6e2U,
  0x3edb1f9fbe0bbb1fU, 0x3ea1f5fb3df15a7cU, 0x3eeb00863e8bbb1fU, 0x3c986f0bbd64a690U,
  0x3d186f0bbc4b3eb9U, 0xbf0bbb1f3e64a690U, 0xbd31d6e2bf49a83cU, 0x3e715a7c3d4b3eb9U,
  0x3efae16cbe82342fU, 0x3e5e4c9abe57f2a5U, 0x3ea1f5fb3ea522f6U, 0xbe3830d8bd7e0e67U,
  0x3ddfd2d100000000U, 0x3f19e0f03ecd2beaU, 0x3f3f2ebd3ddfd2d1U, 0x3e8be3c3bf233463U,
  0x3f873a093f1e8aa9U, 0x3e153736bfc88231U, 0x3f233463be02904fU, 0x3d953736beba8504U,
  0x3f108d7cbe5fd2d1U, 0x3f2334633f313190U, 0x3f02904f3e27de1dU, 0xbd5fd2d1bf313190U,
  0x3f2c87d63e02904fU, 0x3ec3d877bfba8504U, 0x3eba8504bf073a09U, 0x3ea7de1dbf313190U,
  0x3ee92644be9e8aa9U, 0x3c9537363e02904fU, 0x3eb131903f108d7cU, 0x3c953736beba8504U,
  0xbf7bcd2b3e953736U, 0xbddfd2d1bf567f5eU, 0xbc953736bf108d7cU, 0x3ef279b8be9e8aa9U,
  0x3e3a850400000000U, 0x3eb131903ee92644U, 0x3e9e8aa9beb13190U, 0x3ecd2beabf1e8aa9U,
  0x3f5fd2d13efbcd2bU, 0xbd953736bf4d2beaU, 0x3ed67f5ebed67f5eU, 0xbd153736bf692644U,
  0x3ef279b83e02904fU, 0x3ecd2bea3ed67f5eU, 0x3ddfd2d13e953736U, 0x3f02904fbf488231U,
  0x3f27de1d3c953736U, 0x3e3a8504befbcd2bU, 0x3c953736bf0be3c3U, 0x3ed67f5ebf313190U,
  0xbe27de1dbeb13190U, 0xbdba8504be02904fU, 0x3ec3d8773e8be3c3U, 0x3eb13190bf19e0f0U,
  0xbfa0df863e02904fU, 0x3e3a8504bee92644U, 0xbe5fd2d1be9e8aa9U, 0x3ea7de1dbec3d877U,
  0x3f7723713f313190U, 0x3ed67f5e3ecd2beaU, 0x3f02904fbd5fd2d1U, 0x3e82904f3d953736U,
  0x40140cc83e82904fU, 0xbe9e8aa9bf4d2beaU, 0xbea7de1dbd5fd2d1U, 0xbd953736bf978c13U,
  0x3f5fd2d13ea7de1dU, 0x3e9e8aa93d953736U, 0x3eba85043ecd2beaU, 0xbe5fd2d1bf233463U,
  0x3fdb29173ee92644U, 0xbe153736bedfd2d1U, 0xbecd2beabe82904fU, 0xbe3a8504bf7279b8U,
  0x3f6dcffebdba8504U, 0xbea7de1dbf19e0f0U, 0x3ed67f5e3e153736U, 0x3e3a85043e5fd2d1U,
  0xbfdd7df43ee92644U, 0xbe27de1dbf51d5a4U, 0xbf27de1dbdba8504U, 0x3e5fd2d1bf3a8504U,
  0xbe128f59bdafdf38U, 0x3dcd2f16bf2fdf38U, 0x3edbd7063e6a7ef5U, 0xbf1d8d4dbe4d2f16U,
  0x3f71d2ed3f37332fU, 0xbedbd706bf4d2f16U, 0x3ec5db1fbc6a7ef5U, 0x3f288b403e83e76aU,
  0xbe128f593d928f59U, 0x3f632afd3e213748U, 0x3f128f593e99e351U, 0xbf003d6ebf128f59U,
  0xbdea7ef53ef1d2edU, 0xbe928f593cea7ef5U, 0x3f213748beb7332fU, 0x3f163955be2fdf38U,
  0xbdafdf383e3e8727U, 0x3f0791663e03e76aU, 0xbe213748beb7332fU, 0xbf6a7ef5bf19e351U,
  0xbfc9851b3ef926e4U, 0xbfe8a9f73eafdf38U, 0x3f803d6ebebe8727U, 0x3ef926e43ea13748U,
  0xbe3e8727beea7ef5U, 0x3dafdf38bee32afdU, 0x3e7926e43eafdf38U, 0xbdcd2f16bef1d2edU,
  0x3ef1d2ed3ef926e4U, 0xbf03e76abf128f59U, 0x3cea7ef5be928f59U, 0x3cea7ef5bcea7ef5U,
  0xbdafdf38be3e8727U, 0x3eafdf38bc6a7ef5U, 0x3ef1d2ed3f4d2f16U, 0x3d6a7ef5bf2c353cU,
  0xbe4d2f163dea7ef5U, 0xbe6a7ef53e03e76aU, 0xbe99e351U, 0x3e6a7ef5bd928f59U,
  0xbe83e76a3c6a7ef5U, 0x3e03e76a3e03e76aU, 0x3e6a7ef5bea88b40U, 0xbe128f59bf003d6eU,
  0xbfc5db1f3ee32afdU, 0xbfa137483ee32afdU, 0xbe5bd706bf213748U, 0x3e03e76a3e128f59U,
  0x3e7926e4becd2f16U, 0x3ef1d2edbf963955U, 0xbe03e76a3f66d4f9U, 0x3f003d6ebcea7ef5U,
  0x3fcd2f163e6a7ef5U, 0xbf128f59bebe8727U, 0xbf1d8d4dbf163955U, 0xbe2fdf383e7926e4U,
  0x3edbd706bf0ee55dU, 0x3edbd706bf163955U, 0x3ef1d2ed3f90ba5bU, 0x3f079166bf163955U,
  0x3fc231233e3e8727U, 0xbf37332fbcea7ef5U, 0xbe2fdf38bf2c353cU, 0xbed4830e3e2fdf38U,
  0x3e83e76abd928f59U, 0x3e5bd706be8b3b61U, 0x3e7926e43ec5db1fU, 0x3d928f59bf163955U,
  0xbf632afd3f0b3b61U, 0xbfa6b6423f632afdU, 0xbf03e76abf3add2bU, 0xbdafdf383dea7ef5U,
  0x3ec085aebef20723U, 0xbe3b0584bf3dc599U, 0xbe0403e53e0f0438U, 0x3ebb0584bd5c067dU,
  0x3c300531bee186a7U, 0x3d8403e53db00531U, 0x3ed68654be51062aU, 0x3f6706d03ebb0584U,
  0x3e1a048bbec605d7U, 0xbd300531bf2a8507U, 0xbe8403e53ea504deU, 0x3ea504debddc067dU,
  0x3e0403e5beb00531U, 0x3dc605d73eb5855bU, 0x3f568654bec085aeU, 0x3f3b0584bc300531U,
  0x3ea504debf11c44dU, 0x3ec605d7bcb00531U, 0xbe8f04383d9a048bU, 0x3e9f84b4be0403e5U,
  0x3ea504debee706d0U, 0x3ddc067d3e0403e5U, 0x3f2504debef20723U, 0x3f38456f3edc067dU,
  0x3f3b0584bf4345c2U, 0xbd9a048bbf568654U, 0xbe8f0438bdc605d7U, 0x3e6706d03e4605d7U,
  0xbe720723bd5c067dU, 0xbcb00531bd8403e5U, 0x3e720723be6706d0U, 0x3f38456f3e1a048bU,
  0x3e89840ebf69c6e5U, 0x3d8403e5bf0403e5U, 0xbef7874d3d0403e5U, 0x3e9a048b3db00531U,
  0xbeaa8507be9a048bU, 0x3d8403e53e948461U, 0x3f0c4423be89840eU, 0x3ee706d03d5c067dU,
  0x3d5c067dbf77874dU, 0x3d0403e5be300531U, 0xbe6706d0bd0403e5U, 0x3e3b05843dc605d7U,
  0x3e5c067dbee706d0U, 0x3db00531bd9a048bU, 0x3ef20723be8f0438U, 0x3efd07763ee706d0U,
  0x3f38456fbf27c4f3U, 0x3e0403e5bfaea527U, 0xbeb005313df20723U, 0x3dc605d73eb5855bU,
  0xbd0403e5be9f84b4U, 0xbd9a048bbe1a048bU, 0x3e948461bcb00531U, 0x3f3dc5993f11c44dU,
  0x3eec86fabf69c6e5U, 0x3d0403e5bf51062aU, 0xbf2d451c3ddc067dU, 0x3cb005313d0403e5U,
  0xbeb5855bU, 0x3e2504de3f0403e5U, 0x3f300531be720723U, 0x3f0403e53e9f84b4U,
  0xbcb00531bf6c86faU, 0x3e2504debe8403e5U, 0xbf09840e3e300531U, 0xbddc067d3d0403e5U,
  0x3ed1062abe4605d7U, 0x3cb0053100000000U, 0x3ed1062abe5c067dU, 0x3ee706d03f32c546U,
  0x3e5be6753f1d985dU, 0x3f50e7bc3fd491faU, 0x3f45e903be9299a4U, 0xbe1299a4bf879aeaU,
  0xbf5be675bf00466fU, 0x3e793863bfe8ba4dU, 0x3cea8f6cbee33af1U, 0xbeea8f6cbf3e9488U,
  0xbe21429abcea8f6cU, 0x3f37400c3fa89716U, 0x3eb7400cbd6a8f6cU, 0xbf6e39aabf3e9488U,
  0xbd9299a4be83f0adU, 0x3ef1e3e7bfd2bcdbU, 0x3e99ee1fbf19ee1fU, 0xbef938633c6a8f6cU,
  0xbc6a8f6cbc6a8f6cU, 0x3e5be6753f24ecd8U, 0x3fc069a7bf19ee1fU, 0xbf37400cbebe9488U,
  0xbee33af1bf1299a4U, 0x3eafeb91bf50e7bcU, 0x3e4d3d7ebe5be675U, 0xbec5e9033f1299a4U,
  0x3e83f0ad3f583c38U, 0x3d2feb913f9bc33eU, 0xbe3e9488bf0b4528U, 0xbea89716bebe9488U,
  0xbf289716be6a8f6cU, 0x3d6a8f6cbf85c5ccU, 0x3e3e9488bea89716U, 0x3e5be675bf71e3e7U,
  0xbdcd3d7e3e3e9488U, 0x3e6a8f6c3fac4153U, 0x3cea8f6cbeea8f6cU, 0xbf37400cbee33af1U,
  0xbedbe675be6a8f6cU, 0x3dea8f6cbf9d985dU, 0x3d2feb91be4d3d7eU, 0x3c6a8f6cbea89716U,
  0xbe6a8f6cbe4d3d7eU, 0x3e1299a43f3e9488U, 0x3f37400cbef1e3e7U, 0xbf0b4528be3e9488U,
  0xbe793863be99ee1fU, 0x3edbe675be03f0adU, 0x3e03f0adbe8b4528U, 0xbdcd3d7ebe3e9488U,
  0x3eea8f6c3f2feb91U, 0x3e83f0ad3f80466fU, 0xbe6a8f6cbf583c38U, 0x3f03f0adbdafeb91U,
  0xbf5be6753eb7400cU, 0x3ee33af1bfdf90b3U, 0xbd2feb91bc6a8f6cU, 0xbe3e9488bfbcbf69U,
  0x3e99ee1f3e9299a4U, 0x3f4d3d7e3fbe9488U, 0xbf71e3e7bf03f0adU, 0x3f24ecd8beafeb91U,
  0xbe79386300000000U, 0x3ec5e903bfdf90b3U, 0xbd2feb91be9299a4U, 0xbe2feb91bfc413e4U,
  0x3f19ee1fbe2feb91U, 0x3ebe94883ea89716U, 0x3e99ee1fbf423ec5U, 0x3ec5e9033c6a8f6cU,
  0xbeafeb913ea89716U, 0x3f793863bf45e903U, 0x3d6a8f6cbe2feb91U, 0xbecd3d7ebf6a8f6cU,
  0x3d815abebf199bc2U, 0x3e728a243e31dcc5U, 0xbefa9fd0be918616U, 0x3e918616bf836029U,
  0xbf563e4bbe015abeU, 0xbf015abe3e118616U, 0x3c815abebf0d7b40U, 0x3ea9c7193eb9f271U,
  0xbc815abebe89706aU, 0x3da1b16e3e728a24U, 0xbea9c719bd815abeU, 0x3efa9fd0bf4e289fU,
  0xbf5a4921be625eccU, 0xbea9c7193e42081dU, 0x3e815abebf39f271U, 0x3dc2081dbf0d7b40U,
  0x3e728a24be31dcc5U, 0x3f8565943f1da698U, 0xbe21b16ebde25eccU, 0x3f5e53f7bf35e79bU,
  0xbf876aff3c815abeU, 0xbd42081dbde25eccU, 0xbe728a24bf1590ecU, 0xbd815abebec2081dU,
  0x3da1b16ebe815abeU, 0xbe1186163da1b16eU, 0xbe21b16ebf1da698U, 0xbe21b16ebf9fac03U,
  0xbf09706a3f199bc2U, 0xbe015abe3ea1b16eU, 0x3f09706a3e118616U, 0x3eb1dcc53de25eccU,
  0xbe21b16ebe31dcc5U, 0xbd015abe3e42081dU, 0x3d015abebf0d7b40U, 0xbe42081dbf1da698U,
  0xbf25bc433e42081dU, 0xbe31dcc53eb9f271U, 0x3eb1dcc53c815abeU, 0x3f015abebf31dcc5U,
  0xbeb9f271U, 0x3f21b16e3f4a1dc9U, 0x3e89706abf31dcc5U, 0x3f09706abf42081dU,
  0xbf4a1dc93f39f271U, 0x3d42081dbe118616U, 0x3da1b16e3d42081dU, 0xbdc2081dbe42081dU,
  0x3e999bc2bea9c719U, 0x3f4a1dc93de25eccU, 0xbe918616bf6669a2U, 0x3f8d7b40bf1590ecU,
  0xbfa1b16e3fa1b16eU, 0x3e625eccU, 0x3ec2081d3ea1b16eU, 0x3f4612f33e31dcc5U,
  0x3e523375be89706aU, 0x3f31dcc53f09706aU, 0xbea9c719bf29c719U, 0x3fbdfd47be89706aU,
  0xbfc002b23f9590ecU, 0x3e015abe3eb9f271U, 0x3e815abebe118616U, 0x3ec2081dbec2081dU,
  0x3e815abebd815abeU, 0x3fafd75a3f4612f3U, 0xbe918616bf523375U, 0x400058093d815abeU,
  0xbfb5e79b3fafd75aU, 0xbc815abebe21b16eU, 0xbda1b16e3de25eccU, 0x3e523375bee25eccU,
  0x3e520c04U, 0x3f87a7c33f8c0803U, 0x3f2f0a043f0c0803U, 0xbe2f0a04bf21e943U,
  0x3df50e053e408b04U, 0x3eec4d85c00aeff3U, 0x3eaf0a04bf0c0803U, 0xbf106843be8c0803U,
  0xbd0c0803bec08b04U, 0x3f8577a33f94c883U, 0x3f2f0a043f21e943U, 0xbea64984bf70adc5U,
  0x3f034783bd8c0803U, 0x3f408b04bfe5bd25U, 0x3f21e943be94c883U, 0xbf07a7c3be2f0a04U,
  0xbf106843bf21e943U, 0x3d520c043e2f0a04U, 0x3f8c08033e638d05U, 0x3d8c0803be1d8903U,
  0x3edacc853d520c04U, 0x3eb7ca84bf796e45U, 0x3ed20c04bf494b84U, 0xbf37ca843d8c0803U,
  0x3eb7ca843f2f0a04U, 0x3d520c043f638d05U, 0x3c8c08033e408b04U, 0xbd8c0803U,
  0xbe94c883be94c883U, 0xbd520c04bf929863U, 0x3e750e05be2f0a04U, 0xbf14c883bf264984U,
  0x3ee38d05be1d8903U, 0x3e8347833f87a7c3U, 0xbe1d89033ee38d05U, 0xbef50e053d0c0803U,
  0xbea64984bd520c04U, 0x3e408b04bf9b58e3U, 0xbc8c0803bd0c0803U, 0xbedacc85bf5acc85U,
  0x3c8c08033e0c0803U, 0xbf1d89033edacc85U, 0x3f1068433edacc85U, 0xbd8c0803bdf50e05U,
  0x3e8c0803bf264984U, 0x3e8c08033d8c0803U, 0xbef50e05bdf50e05U, 0xbe2f0a04be9d8903U,
  0x3f9068433eb7ca84U, 0x3eb7ca843fa1e943U, 0x3dd20c043e520c04U, 0x3df50e05bd0c0803U,
  0x3fa64984be408b04U, 0xbe0c0803bf811763U, 0xbdf50e05bec94b84U, 0x3c8c0803c0045f93U,
  0x3f3c2ac43e408b04U, 0x3e408b043f96f8a3U, 0xbe94c8833f0c0803U, 0xbec94b84bf2f0a04U,
  0x3f929863bf520c04U, 0x3c8c0803bf9b58e3U, 0xbd8c0803bc8c0803U, 0xbf2f0a04bff73e25U,
  0x3f106843bdd20c04U, 0xbe750e05bdd20c04U, 0x3eb7ca843edacc85U, 0xbee38d053d520c04U,
  0x3eec4d85bf14c883U, 0x3ec94b84beec4d85U, 0xbed20c04bc8c0803U, 0xbdf50e05bfa879a4U,
  0xbe6b5546bd0679dfU, 0x3f0679df3f38e793U, 0x3e281857bf49b6ceU, 0x3e97491bbf17491bU,
  0x40152f333f824610U, 0xbefc24823d8679dfU, 0x3f5a860abf0679dfU, 0xbec9b6cebfdeb9d9U,
  0xbea818573dc9b6ceU, 0x3f7c24823f307ff5U, 0x3fb4b3c4bf0679dfU, 0x3e0679df3d0679dfU,
  0x3fda860a3d8679dfU, 0x3e6b55463e49b6ceU, 0x3d0679dfbf414f31U, 0x3e281857bdc9b6ceU,
  0xbe49b6cebe6b5546U, 0xbefc2482bd0679dfU, 0x3f7c24823f62eda8U, 0xbe49b6cebe281857U,
  0xc0307ff5bd8679dfU, 0x3e49b6cebf97491bU, 0xbea81857bf281857U, 0x3f414f313f38e793U,
  0xbd8679df3f307ff5U, 0xbe2818573f1fb0b9U, 0xbe49b6cebf281857U, 0x3f8679dfbefc2482U,
  0x400893c63eeb5546U, 0x3dc9b6cebe281857U, 0x3efc24823d0679dfU, 0xbf0679dfbfc9b6ceU,
  0xbd0679dfbe0679dfU, 0xbd8679df3e49b6ceU, 0x3e6b5546be6b5546U, 0x3f0ee17d3eb8e793U,
  0x3f0ee17dbe49b6ceU, 0xbd0679df3d8679dfU, 0xbefc2482bf307ff5U, 0xbf5a860a00000000U,
  0xbe0679dfbf521e6cU, 0xbe97491b00000000U, 0x3f521e6c3f17491bU, 0x3e2818573e49b6ceU,
  0xbfe72177bdc9b6ceU, 0x3dc9b6cebf62eda8U, 0xbf0ee17dbf824610U, 0x3f2818573f62eda8U,
  0x3eb8e7933f307ff5U, 0x3e49b6ce3ec9b6ceU, 0xbf17491bbf307ff5U, 0x3f0ee17d3d8679dfU,
  0x40856ceb3f49b6ceU, 0xbf2818573d8679dfU, 0x3e0679df3f17491bU, 0xbf1fb0b9bff3bce4U,
  0x3f0ee17dbe6b5546U, 0x3f38e793bd0679dfU, 0xbec9b6ce3eeb5546U, 0xbd8679dfU,
  0x404583003ec9b6ceU, 0xbe97491bbe281857U, 0xbf307ff5be0679dfU, 0xbf824610bd8679dfU,
  0x3f1fb0b9bf414f31U, 0xbeb8e793bf414f31U, 0x3f8ee17d3f38e793U, 0x3d0679dfbd0679dfU,
  0xc023e4883d0679dfU, 0x3e8679dfbf62eda8U, 0xbf414f31bf281857U, 0x3eda860a3e97491bU,
  0x3dccb100beb31ae0U, 0xbeb31ae0bf032164U, 0xbf7caa7cbe9984c0U, 0xbf1984c0be597c10U,
  0xbf6647203f131f38U, 0x3effdd403f2cb558U, 0x3e264fd0bef977b8U, 0x3f0fec743eecaca8U,
  0x3dffdd40bee64720U, 0xbd4cb100bf364da4U, 0xbf364da4be9984c0U, 0x3e264fd0be1984c0U,
  0xbf6fdf6c3f1984c0U, 0x3f3fe5f03f9651fcU, 0xbeb98068bef31230U, 0x3e8654283f298294U,
  0x3db31ae0bf1651fcU, 0xbe9fea483e1984c0U, 0x3de64720bed97c10U, 0x3e931f38bed97c10U,
  0xbf8cb9b03f398068U, 0x3f9984c03d1984c0U, 0xbe7fdd40bf2fe81cU, 0xbe4cb1003f032164U,
  0x3f1fea48bf032164U, 0xbe865428bf032164U, 0xbf7caa7cbde64720U, 0x3f531688bec64b78U,
  0xbf5316883f6caca8U, 0x3effdd403f065428U, 0x3ef31230bdccb100U, 0x3f0321643eb31ae0U,
  0x3f0cb9b0be931f38U, 0xbdb31ae0bf0cb9b0U, 0xbf0cb9b0be4cb100U, 0x3f664720bf231d0cU,
  0xbf464b783f7644f4U, 0x3f3fe5f03f8e5312U, 0xbe597c10be264fd0U, 0x3d9984c03f2cb558U,
  0x3ed97c10bd1984c0U, 0xbd4cb1003e331ae0U, 0x3e865428bed97c10U, 0x3fc318b4bf2fe81cU,
  0xbf0fec743f5fe198U, 0x3fa31d0c3e9fea48U, 0x3cccb100bf231d0cU, 0xbe7312303eccb100U,
  0x3f0986ec00000000U, 0xbd7fdd40be9fea48U, 0xbfbcb32cbe664720U, 0x3f398068bef977b8U,
  0xbf1651fc3fa98294U, 0x3f9984c03f9984c0U, 0x3ed316883d7fdd40U, 0x3ed316883f131f38U,
  0x3d1984c0bef31230U, 0x3c4cb100beecaca8U, 0xbf8cb9b0be931f38U, 0x3f63145cbdffdd40U,
  0xbf8cb9b03f8986ecU, 0x3f6caca83fc7e4daU, 0xbc4cb1003e8cb9b0U, 0xbeacb5583ea64fd0U,
  0x3f065428bef977b8U, 0xbe6647203e597c10U, 0xbf597c10bf5caed4U, 0x3f97eb5ebf0986ecU,
  0xbf4318b43fcb179eU, 0x3fc318b43e731230U, 0xbed97c103ebfe5f0U, 0xbf87ed8a3eb98068U,
  0x3e0496b43cd42454U, 0x3d9f1b3fbe30c8f0U, 0xbc8d6d8d3edcfb2cU, 0x3e1f1b3f3e4276a2U,
  0x3cd42454bdf77fb7U, 0x3d777fb7bf4040ecU, 0x3ef3144abd8d6d8dU, 0x3f4276a2bdb0c8f0U,
  0x3e4b4d7bbc8d6d8dU, 0x3ed88fc0be4b4d7bU, 0x3dc276a23e542454U, 0x3dd424543cd42454U,
  0xbe65d205bde5d205U, 0x3eb0c8f0bf2c5d84U, 0x3f27f217bdb0c8f0U, 0x3f8c52b2bd8d6d8dU,
  0x3e27f2173d8d6d8dU, 0x3e0d6d8dbe65d205U, 0x3c0d6d8d3d0d6d8dU, 0xbe0d6d8d3d777fb7U,
  0xbde5d205bc8d6d8dU, 0xbe164466bf565a0aU, 0x3f2a27ce3c8d6d8dU, 0x3f4917c43e890221U,
  0xbc0d6d8d3d777fb7U, 0x3e0d6d8dbe91d8f9U, 0xbd9f1b3f3eea3d72U, 0xbeb99fc93e5cfb2cU,
  0xbe164466be0d6d8dU, 0xbe1f1b3fbf2c5d84U, 0x3dc276a23d0d6d8dU, 0x3f06cc6abe399fc9U,
  0x3e0496b4bd777fb7U, 0x3db0c8f0be9f1b3fU, 0xbd0d6d8d3e964466U, 0xbeeea8de3e1f1b3fU,
  0xbec6e20e3d8d6d8dU, 0x3de5d205bef77fb7U, 0x3e91d8f900000000U, 0x3f2c5d84bc0d6d8dU,
  0x3dd424543dc276a2U, 0x3dc276a2be399fc9U, 0x3e399fc93d30c8f0U, 0xbebe0b35bd0d6d8dU,
  0xbe4276a23d777fb7U, 0xbe4276a2bec6e20eU, 0x3d8d6d8dbe164466U, 0x3f32fea6bcd42454U,
  0x3c8d6d8dbe164466U, 0x3db0c8f0bf4040ecU, 0xbe8d6d8d3f0496b4U, 0xbd777fb73d30c8f0U,
  0x3f11d8f9be399fc9U, 0xbe9f1b3fbf2a27ceU, 0x3c0d6d8d3c8d6d8dU, 0x3f2150f53d542454U,
  0x3e0d6d8d00000000U, 0x3d8d6d8dbf2c5d84U, 0xbdc276a23e964466U, 0xbeb5345d3c8d6d8dU,
  0xbee16699bdc276a2U, 0xbe6ea8debefbeb23U, 0x3dc276a2bdc276a2U, 0x3f4d83313c0d6d8dU,
  0x3e9f1b3fbdb0c8f0U, 0x3d542454becfb8e7U, 0xbc0d6d8d3e65d205U, 0xbde5d2053c8d6d8dU,
  0xbecb4d7bbe0d6d8dU, 0xbef77fb7be164466U, 0x3d30c8f0be4276a2U, 0x3f65d2053c8d6d8dU,
  0x3ef6022abd91c865U, 0x3e11c865bf5f3adbU, 0xbec8738bbf288fb5U, 0xbf1656a8be48738bU,
  0xbfc62c69bf4d01ceU, 0x3e240172bf5f3adbU, 0xbea40172bf91c865U, 0x3c91c8653f041d9cU,
  0xbc91c865bf1ae4ebU, 0xbddaac98bf2d1df8U, 0xbe6ce5a4bf11c865U, 0xbf1656a83c91c865U,
  0xbf9d2c0dbf9f732eU, 0x3f1656a8bf288fb5U, 0xbe6ce5a4bf08abdfU, 0xbd11c8653ed19011U,
  0x3f1f732ebddaac98U, 0x3ead1df83c91c865U, 0x3f3f5705bf48738bU, 0xbf08abdf00000000U,
  0xbf9d2c0dbf7a906eU, 0x3ead1df8bf288fb5U, 0xbf48738bbf5aac98U, 0xbe48738b3f81d67aU,
  0xbdb63a7e3e7f1eb1U, 0x3e11c865bddaac98U, 0xbf4d01cebf841d9cU, 0x3eb63a7ebf08abdfU,
  0xbfc19e263d91c865U, 0x3ed19011bd11c865U, 0x3f63c91ebec8738bU, 0x3f9656a83d5aac98U,
  0x3c91c865bedaac98U, 0xbe91c8653e240172U, 0xbe5aac98bf88abdfU, 0x3ead1df83e88abdfU,
  0xbfcf48f0bec8738bU, 0x3f7173e7bc91c865U, 0x3f11c865bed19011U, 0x3e48738bbddaac98U,
  0xbc91c865U, 0x3dff1eb13f041d9cU, 0x3f48738bbfa1ba50U, 0x3f1656a8be7f1eb1U,
  0xbf9ae4ebbebf5705U, 0x3f88abdf3c91c865U, 0x3dff1eb1bdff1eb1U, 0xbe88abdfbdb63a7eU,
  0xbdff1eb13e240172U, 0x3f363a7e3f3ac8c1U, 0xbfb881a0bf9d2c0dU, 0x3ead1df8bedaac98U,
  0xbf3f57053ed19011U, 0x3fd3d73300000000U, 0x3fb63a7e3d11c865U, 0x3fc62c69bf3ac8c1U,
  0x3d91c865be7f1eb1U, 0x3e91c8653ea40172U, 0xbf940f87bfb1ac3bU, 0x3f76022a3e6ce5a4U,
  0xbfdaac983f685761U, 0x3fd61e543eece5a4U, 0x3f561e543d11c865U, 0x3eff1eb1bf1f732eU,
  0x3d5aac98bf08abdfU, 0x3e9ae4eb3f1f732eU, 0xbe91c865c010a4d4U, 0x3fbac8c13e9ae4ebU,
  0xbf940f873f63c91eU, 0x3fcabaacbf519011U, 0x3eff1eb1bd5aac98U, 0xbd5aac98bf76022aU,
  0x3e085832be35caeeU, 0xbdb5caeebe79f707U, 0xbe2a6e3fbf02a9dbU, 0xbf085832bf301c97U,
  0xbe79f707be41279dU, 0x3e8e068a3df9f707U, 0xbd885832bf21e8bcU, 0xbe57e0fbbfb45f58U,
  0x3eb01c97be4c844cU, 0xbd08583200000000U, 0xbe41279dbe1f1190U, 0xbf1c3a65beaa6e3fU,
  0xbe57e0fbbd085832U, 0x3ec1279d3e996339U, 0x3ee33daabf279713U, 0xbebb7945bf1f1190U,
  0x3ea4bfe8be885832U, 0x3d9f1190bdcc844cU, 0xbf058107beffa55fU, 0xbe8e068abf196339U,
  0xbef448b03d9f1190U, 0xbd35caee3d633daaU, 0xbedd8f52bed7e0fbU, 0xbf2a6e3fbedd8f52U,
  0x3e13b4e1be57e0fbU, 0xbedd8f52be57e0fbU, 0x3de33daabf02a9dbU, 0xbf5509cfbe79f707U,
  0xbe2a6e3f3de33daaU, 0x3e79f7073e9f1190U, 0x3ebb7945bee8ec01U, 0xbe93b4e1bf885832U,
  0x3d885832bd885832U, 0xbec6d5f400000000U, 0xbd085832becc844cU, 0xbf5ab826be57e0fbU,
  0xbe57e0fb3e13b4e1U, 0x3e79f7073eb5caeeU, 0x3f5ab826bec1279dU, 0xbec1279dbe885832U,
  0x3ea4bfe8be6e9a58U, 0xbf0e068abcb5caeeU, 0x3d35caeebeffa55fU, 0xbf5ab826be57e0fbU,
  0xbed232a33e633daaU, 0xbe41279d00000000U, 0x3cb5caeebecc844cU, 0xbedd8f52bd35caeeU,
  0x3f196339be4c844cU, 0xbe1f1190be13b4e1U, 0x3e13b4e1bf1c3a65U, 0xbe41279dbdb5caeeU,
  0xbebb79453f168c0dU, 0x3e8e068a3f058107U, 0xbe2a6e3fbe82a9dbU, 0xbf085832bf41279dU,
  0x3ebb7945bd885832U, 0x3e1f11903e6e9a58U, 0xbdb5caeebedd8f52U, 0xbe9f1190bd633daaU,
  0xbef9f7073ee8ec01U, 0x3eaa6e3f3f196339U, 0x3ea4bfe8bdf9f707U, 0xbee8ec01be13b4e1U,
  0x3f168c0dbd35caeeU, 0xbe633daa3cb5caeeU, 0x3c35caeebf301c97U, 0xbe633daabde33daaU,
  0xbf1f11903f41279dU, 0xbe35caee3e4c844cU, 0xbf02a9dbbebb7945U, 0xbf2d456b3e6e9a58U,
  0x3f079af8bf988e58U, 0xbd58f7f4bfbf8ae5U, 0x3e079af83e8e62b8U, 0x3e3dd8f6bea2b9f7U,
  0xbeed4f333da2b9f7U, 0x3e3049763ed23034U, 0x3f58f7f4beed4f33U, 0x3cd8f7f43ef416f2U,
  0x3eb71136bf777ad2U, 0x3e58f7f4bf894ce8U, 0x3d58f7f43eed4f33U, 0x3ee68773be668773U,
  0xbe58f7f400000000U, 0x3ee687733f44a0b5U, 0x3f6d4f33be4b6875U, 0x3ebdd8f63e8e62b8U,
  0x3d879af8bf9bf237U, 0x3e22b9f7bf261dd7U, 0xbe6687733e668773U, 0x3eb71136be9bf237U,
  0xbf33ad563da2b9f7U, 0x3dd8f7f43f1f5617U, 0x3f00d339be879af8U, 0x3cd8f7f43ef416f2U,
  0x3f559414bf188e58U, 0xbe952a78bf96dc68U, 0x3ecb68753ec4a0b5U, 0x3eb711363e152a78U,
  0xbf413cd53e7416f2U, 0x3e952a783e8e62b8U, 0x3f1f56173e952a78U, 0x3edfbfb43e304976U,
  0x3eed4f33bf11c698U, 0x3dd8f7f4bf828529U, 0x3ec4a0b53ec4a0b5U, 0x3e4b68753df416f2U,
  0xbf5230343d22b9f7U, 0x3ecb68753f371136U, 0x3f152a78be668773U, 0x3d58f7f43df416f2U,
  0x3ea2b9f7bf480495U, 0xbcd8f7f4bf1f5617U, 0x3ee687733ea981b7U, 0x3eb711363cd8f7f4U,
  0xbf6687733da2b9f7U, 0x3e152a783eed4f33U, 0x3f22b9f7be7416f2U, 0x3e079af83e3dd8f6U,
  0x3e80d339bea981b7U, 0xbed8f7f4bfba7516U, 0xbdd8f7f43f413cd5U, 0xbf152a783c58f7f4U,
  0xbf413cd5bf11c698U, 0x3f11c6983e879af8U, 0x3f44a0b5bdf416f2U, 0x3f11c6983e9bf237U,
  0x3ebdd8f6beb71136U, 0xbeb04976bfd74604U, 0xbe7416f23f3a7516U, 0xbf22b9f7bdbdd8f6U,
  0xbf8cb0c8be668773U, 0x3f188e583f1bf237U, 0x3f079af8bee68773U, 0x3ec4a0b53eb04976U,
  0x3eb04976be879af8U, 0xbe952a78bf44a0b5U, 0xbe879af83e879af8U, 0xbf1f5617becb6875U,
  0xbfc13cd5be7416f2U, 0x3dbdd8f63ed23034U, 0x3e58f7f4bf33ad56U, 0x3eb049763f00d339U,
  0xbe97f832bdd9196cU, 0x3f53abfcbd2dadf0U, 0xbdadadf0bfe13d93U, 0xbf53abfcbf48d11eU,
  0xbe8d1d53bf024274U, 0x3ece3e8d3d2dadf0U, 0x3e8d1d53beb888cfU, 0xbe4363ae3e6ecf2aU,
  0x3d824274be59196cU, 0x3eb888cf3cadadf0U, 0x3e17f832bfaaf738U, 0xbf743c9abf331b60U,
  0x3e2dadf0bf3df63eU, 0x3ec363aebcadadf0U, 0x3dadadf0bf07afe4U, 0xbdadadf03f3888cfU,
  0xbeb888cfbe97f832U, 0x3f2840803e824274U, 0x3e59196cbfdbd024U, 0xbf331b60bef9aa09U,
  0xbee3f44bbf53abfcU, 0x3d824274be4363aeU, 0xbcadadf0beadadf0U, 0xbeb888cf3ef9aa09U,
  0xbe4363ae3e59196cU, 0xbeeecf2a3e6ecf2aU, 0xbe4363aebff6f351U, 0x3e024274beb888cfU,
  0xbd824274be97f832U, 0x3e0242743e6ecf2aU, 0x3f3df63ebf07afe4U, 0x3d2dadf03e17f832U,
  0x3e8d1d53bece3e8dU, 0x3d2dadf03eadadf0U, 0x3e6ecf2abfc363aeU, 0x3e97f832bf4363aeU,
  0x3ec363ae3e17f832U, 0x3e17f8323e2dadf0U, 0x3f07afe4bee3f44bU, 0xbe6ecf2abdadadf0U,
  0x3e8d1d53bd2dadf0U, 0xbcadadf03f2dadf0U, 0x3ece3e8dbfe6ab03U, 0x3eadadf0bf3888cfU,
  0xbd8242743dadadf0U, 0x3e8d1d533f07afe4U, 0x3e59196cbeb888cfU, 0xbeb888cf3dadadf0U,
  0xbee3f44bbe97f832U, 0x3eadadf03dadadf0U, 0xbf63f44bc022d311U, 0x3f95417abec363aeU,
  0x3d8242743f8a669bU, 0x3f17f832beeecf2aU, 0x3e824274bd824274U, 0xbf17f8323e59196cU,
  0xbece3e8dbf0d1d53U, 0x3eadadf03eadadf0U, 0xbea2d311c0090b3fU, 0x3f9aaeeabe97f832U,
  0x3eadadf03fc363aeU, 0x3f3888cf3cadadf0U, 0x3ea2d311be2dadf0U, 0xbe97f832be024274U,
  0xbdd9196cbdadadf0U, 0x3e8d1d533ef9aa09U, 0xbeeecf2ac02c5294U, 0x3f4e3e8dbe97f832U,
  0xbf0d1d533f8fd40bU, 0x3f17f832bef9aa09U, 0xbec363aebe6ecf2aU, 0xbf4363aebdadadf0U,
  0xbec818863f118633U, 0x3eb5e7c03ea3b6f9U, 0x3eaccf5dbfaa8944U, 0xbe9a9e96be35e7c0U,
  0x3f6361b0bec81886U, 0x3e918633bdb5e7c0U, 0x3f1a9e96be918633U, 0x3d9186333e5a494cU,
  0xbe35e7c03eda494cU, 0x3e5a494c3e9a9e96U, 0x3dfeaad9bf93cc4cU, 0xbf118633beaccf5dU,
  0x3f83e19ebe7eaad9U, 0x3e6c7a13be886dd0U, 0x3ed130e9be23b6f9U, 0x3db5e7c03e9a9e96U,
  0xbefeaad93eda494cU, 0x3eda494c3ee361b0U, 0x3ef59276bf961265U, 0xbe6c7a13be23b6f9U,
  0x3ea3b6f93d5a494cU, 0x3ebf0023bdb5e7c0U, 0xbd118633bc918633U, 0x3ec818863e118633U,
  0x3d5a494c3ee361b0U, 0x3e35e7c03e481886U, 0x3d5a494cbf93cc4cU, 0x3f1f2ac8be7eaad9U,
  0x3f5130e93c918633U, 0x3e481886be9a9e96U, 0x3eda494cbe481886U, 0xbe35e7c03eaccf5dU,
  0xbe7eaad9bc918633U, 0x3e23b6f93d118633U, 0x3c918633bf2ccf5dU, 0x3f23b6f9be481886U,
  0x3fa8432bbc918633U, 0x3dda494cbef59276U, 0x3eb5e7c0bd5a494cU, 0xbe7eaad9be481886U,
  0xbe23b6f93c918633U, 0x3e9186333eaccf5dU, 0x3f118633bf3f0023U, 0x3f3a73f13e6c7a13U,
  0x3e6c7a133dfeaad9U, 0x3eb5e7c0bf0cfa01U, 0x3e35e7c03e23b6f9U, 0x3dda494c3d918633U,
  0xbe9a9e963db5e7c0U, 0x3e886dd03c918633U, 0xbf28432bbfd130e9U, 0x3eec7a13bdb5e7c0U,
  0x3ff106443dda494cU, 0x3e23b6f9bec81886U, 0x3e23b6f93d118633U, 0xbf315b8e3eaccf5dU,
  0x3e35e7c0beb5e7c0U, 0x3e118633bd918633U, 0xbf118633bf9a9e96U, 0x3ef592763d118633U,
  0x401063273ebf0023U, 0x3eb5e7c0be7eaad9U, 0xbc918633be35e7c0U, 0xbefeaad9bd918633U,
  0xbd918633be481886U, 0x3e23b6f93ed130e9U, 0xbee361b0bfa5fd12U, 0x3f5ed57e3e35e7c0U,
  0x3f5ed57e3f0cfa01U, 0x3ebf0023beda494cU, 0xbe886dd03e9a9e96U, 0x3c918633bc918633U,
  0x3dae40bd3de85651U, 0x3e4b4b87be89f340U, 0xbe82b08e3e02b08eU, 0xbe89f340bec408d4U,
  0x3fa35cb1bf235cb1U, 0xbf09f340bfae40bdU, 0x3f84813abef6dbb6U, 0x3fa6fe0a3e9878a5U,
  0x3dcb4b87bce85651U, 0x3ecb4b873e9fbb58U, 0x3ec408d43e89f340U, 0xbf0651e7bef6dbb6U,
  0x3e1fbb58be76dbb6U, 0xbecb4b87bf4408d4U, 0x3f9878a5bf7a7d0fU, 0x3fd0bd8dbe89f340U,
  0xbe02b08e3de85651U, 0x3e9878a5bd2e40bdU, 0xbf0651e7be2e40bdU, 0xbe685651bd2e40bdU,
  0xbfa35cb1bef6dbb6U, 0xbfa18c04be82b08eU, 0x3fb5836fbf1135f3U, 0x3fcb4b8700000000U,
  0xbe1fbb58bed9d0ecU, 0xbdae40bdbd685651U, 0xbf47aa2e3dcb4b87U, 0xbea6fe0abf09f340U,
  0x3f2a9f63be9fbb58U, 0xbf3924c9bf40677bU, 0x3e4b4b87bf2e40bdU, 0x3f2a9f633ce85651U,
  0xbf4408d4be89f340U, 0x3e9878a53e1135f3U, 0xbf5d72453ebcc622U, 0xbf2e40bdbf35836fU,
  0x3e82b08ebe685651U, 0xbefe1e69bee85651U, 0x3f0d9499bf1fbb58U, 0x3f4eece0bf14d74cU,
  0xbef6dbb63e1fbb58U, 0x3d685651bdcb4b87U, 0xbf59d0ecbe82b08eU, 0xbf2e40bdbee85651U,
  0xbfaa9f63be59d0ecU, 0xbf6bf7aabe1135f3U, 0x3e89f340bef6dbb6U, 0x3f93069f3c685651U,
  0x3f26fe0a3c685651U, 0x3f35836fbf3cc622U, 0xbf3cc6223ed9d0ecU, 0xbde856513e82b08eU,
  0x3fe2e44b3e82b08eU, 0xbf9878a5bf4b4b87U, 0xbd9135f3bf3924c9U, 0x3f562f933ea6fe0aU,
  0x3eb5836fbe9fbb58U, 0x3f4b4b87be1fbb58U, 0xbf7a7d0f3ed28e39U, 0x3e4b4b87bf235cb1U,
  0x3fe685a43e2e40bdU, 0xbfa18c04bf1135f3U, 0x3dae40bdbf64b4f8U, 0x3f4eece0be9135f3U,
  0x3e89f340bc685651U, 0xbce85651bf7e1e69U, 0xbf40677b3e1135f3U, 0xbe2e40bd3e9135f3U,
  0xbfb3b2c33e76dbb6U, 0xbfcb4b873ebcc622U, 0xbe89f340bf26fe0aU, 0x3fae40bdbee85651U,
  0x3e5c508fbfec99fbU, 0xbfb80f7fbf75590eU, 0xbf9a013a4002ed47U, 0x3fa0462fc002bccdU,
  0xc002d6573e1363f0U, 0x3fdedc7abfa5b199U, 0x401db901c00f57d8U, 0x40460d89406c4c36U,
  0x3f895e73bc226940U, 0xbc8cda104012be2aU, 0x3fb5580a3fd5e0deU, 0x3f1323283f753354U,
  0xbe8815d2bf96a5b9U, 0x4041ea103f852997U, 0x4027bb19be039094U, 0x40447146be49fe50U,
  0x3a800000U, 0xbf09a0573df92372U, 0xbfe27114bf488ad0U, 0xbf1480173dd95224U,
  0x3b88436cbfc77010U, 0xbf4ab7063fba41beU, 0x3ee241bfbedefa15U, 0xbe9bad6c3cb4a78cU,
  0xbf80d0e7bf37cc6aU, 0x3f23f9eebdaeadcdU, 0x3d59be873f0a44f1U, 0xba8b556cbea1064fU,
  0x3fbc466e3d7b70fcU, 0xbdc3c8b4be620ec6U, 0xbd5aa29dbf87d123U, 0x3eb651a2bf49a49eU,
  0x3f0aeb8d3f29cb36U, 0x3f9888863e4a9427U, 0x3f8a4794bf33020dU, 0x3faf685abfbafa73U,
  0xbf4f83d33f782766U, 0xbf2d1726be71e955U, 0x3e131aabbf28f7a7U, 0x3f8c776f3c962ffeU,
  0xbf4a3927bf14d2cdU, 0xbed75d75be1faea6U, 0x3edad2823f67337eU, 0xbf437cb8bfaea4b5U,
  0xbe5e0155bf1a54d8U, 0x3f3ebcc9becc4193U, 0xbe4f7883bfda8db6U, 0xbfda18113f3f3896U,
  0x3ebb6af2bf1a6c50U, 0x3eb6c56a3e606c19U, 0x3f28a0f23fa30721U, 0x3e72aca63e84ecd9U,
  0xbfb1e0043de3efd5U, 0x3f83be333d82ea63U, 0xbe9bab0cbf814ad4U, 0xbf364f893ea348b6U,
  0xbec29097bea97749U, 0x3e06c9603d921324U, 0xbf592579bf7bfd01U, 0xbf6c72d03f6249f4U,
  0xbc74bc913f85a803U, 0xbebcaa4bbf87e138U, 0x3e0574e8bebedfafU, 0xbea26583bfac0ba3U,
  0xbf33d63a3e402d69U, 0xbfc538bb3e95c3b2U, 0xbf32b368bed443deU, 0xbfbc12ebbec8882fU,
  0xbe979647bf18a168U, 0x3f248828bf9ea549U, 0x3eb477603fac07feU, 0xbfbb84c43e94860eU,
  0x3e8681d83eb2699eU, 0xbfa777e43eaacbe5U, 0x3e8c50c0bfa6902cU, 0xbda16b44bec1318fU,
  0xbfc1eb57bfa74391U, 0xbf1a411f3febf625U, 0x3eaa7a7d3f88df9fU, 0x3f68f6913f1a69c2U,
  0xbfa838ac3ea37254U, 0xbe2cc54cbe4fce02U, 0xbeb14b41bf04e3baU, 0xbe9f548e3ed7fd9aU,
  0xbd3f3e7cbea47049U, 0xbeb30054bf221a58U, 0xbea2db0c3ecd7340U, 0x3eb298713cc9a240U,
  0x3ebbbe31bc3778f8U, 0xbe655d68be9359c0U, 0x3efa51b6be917554U, 0xbeb8e1383d0f107eU,
  0xbf1b39ccbea922c7U, 0x3f255a0abf1d5daeU, 0xbf6a99383f2516b9U, 0xbde1c9333e8a4bc5U,
  0x3f2c1063bea873f5U, 0x3eb71823bff5ae21U, 0x3f0d101e3e4379b9U, 0x3ef688f23e72d163U,
  0x3f293a4d3f31a248U, 0xbf6b5c24bf3358a1U, 0xbfd0e523bf267181U, 0x3ece48d1c004491aU,
  0x3f3dcba83f5d1979U, 0x3e1cc23cbfcd47b5U, 0xbf8ec05d3ec50c71U, 0x3f3770d93edcd5d8U,
  0xbf1461d83e5d15ecU, 0xbf12dbc8bc37b834U, 0x3f875d713f0e34cdU, 0x3e85ab5b3cf1fbb4U,
  0xbd18b505bfb110e1U, 0x3e1a7c9e3db9f498U, 0x3e874333bc590cf5U, 0x3d34aacbbf01f8b4U,
};


ai_handle g_tinycnnbuow_weights_table[1 + 2] = {
  AI_HANDLE_PTR(AI_MAGIC_MARKER),
  AI_HANDLE_PTR(s_tinycnnbuow_weights_array_u64),
  AI_HANDLE_PTR(AI_MAGIC_MARKER),
};

